<pad>	0
<unk>	0
<s>	0
</s>	0
<|im_start|>	0
<|im_end|>	0
<medical>	0
<en_vi>	0
<vi_en>	0
▁	-2.797
,	-3.47208
.	-3.65073
▁the	-3.83024
:	-3.90553
▁to	-4.07588
0	-4.25813
e	-4.26985
1	-4.29927
▁following	-4.37637
▁Vietnamese	-4.38161
▁English	-4.38365
▁Translat	-4.38553
2	-4.39191
▁of	-4.54013
▁(	-4.60703
▁and	-4.75523
▁sentence	-4.76966
▁và	-4.88641
3	-4.93142
5	-4.93536
4	-5.14758
▁có	-5.1893
-	-5.20074
▁in	-5.21291
6	-5.23169
▁bệnh	-5.30794
)	-5.34767
8	-5.36828
7	-5.37031
9	-5.39453
▁medical	-5.48325
▁text	-5.52748
▁là	-5.62005
▁các	-5.65757
▁with	-5.66508
%	-5.70852
▁của	-5.72513
▁nhân	-5.73108
▁is	-5.74756
▁được	-5.74927
▁trong	-5.86293
s	-5.94557
▁với	-5.97823
▁thể	-5.98325
▁a	-5.99243
▁ở	-5.99667
▁trị	-6.05683
▁patients	-6.07062
▁The	-6.13591
▁for	-6.13947
▁-	-6.15116
▁không	-6.21033
ng	-6.21296
).	-6.2287
▁cứu	-6.22924
▁điều	-6.23723
▁/	-6.26231
▁or	-6.26721
i	-6.26856
▁was	-6.30611
▁quả	-6.30689
n	-6.35252
▁hoặc	-6.39262
▁một	-6.41425
▁đến	-6.41439
;	-6.42648
▁chứng	-6.42817
▁độ	-6.44291
▁are	-6.50455
/	-6.50466
▁hợp	-6.57077
▁số	-6.57104
▁T	-6.57775
▁thường	-6.58045
▁sinh	-6.58309
▁cho	-6.59082
▁tại	-6.59157
▁sau	-6.59772
▁cơ	-6.60522
▁máu	-6.6141
▁trên	-6.61519
▁at	-6.61724
▁thuật	-6.62021
▁dụng	-6.62265
▁lệ	-6.62519
▁khi	-6.64863
▁were	-6.67096
▁be	-6.67627
▁hiện	-6.69847
▁pháp	-6.70633
▁on	-6.72011
▁mạch	-6.7237
▁by	-6.72551
p	-6.7259
▁quan	-6.72844
▁Kết	-6.72959
▁t	-6.73868
▁từ	-6.74914
▁do	-6.77515
▁nghiên	-6.78918
▁cao	-6.79282
▁giá	-6.79369
%,	-6.82017
▁định	-6.82432
▁động	-6.83114
▁người	-6.84127
),	-6.84279
▁tính	-6.84574
▁bằng	-6.84778
▁viện	-6.85257
▁tăng	-6.86625
▁phẫu	-6.86747
▁from	-6.87608
▁thuốc	-6.898
%.	-6.90235
▁về	-6.92098
▁điểm	-6.92421
▁tuổi	-6.94462
▁huyết	-6.9589
▁giảm	-6.96639
▁hơn	-6.97253
▁những	-6.97962
▁để	-6.98054
▁ra	-6.98298
▁that	-6.98324
▁phát	-6.99497
▁sử	-7.00343
▁đường	-7.00641
▁kết	-7.00918
▁biến	-7.01268
▁l	-7.01294
▁nhóm	-7.01642
▁can	-7.02117
▁trung	-7.02623
▁đoán	-7.03137
▁sự	-7.03224
▁Các	-7.03259
▁nhiễm	-7.03295
▁thực	-7.03752
▁trường	-7.04564
▁hiệu	-7.0457
▁as	-7.04951
▁tiêu	-7.05254
▁m	-7.05819
▁tr	-7.06312
▁treatment	-7.07123
▁study	-7.07225
▁liên	-7.07328
▁thương	-7.07547
▁may	-7.07829
▁sàng	-7.09735
▁k	-7.10457
▁gây	-7.10502
▁theo	-7.1184
▁bình	-7.12525
▁bị	-7.12649
▁viêm	-7.12954
▁tế	-7.13859
▁đầu	-7.1386
▁lượng	-7.14068
▁tháng	-7.14709
▁C	-7.1542
▁mô	-7.15502
▁yếu	-7.16814
▁an	-7.16908
▁Bệnh	-7.17905
▁lâm	-7.19192
▁này	-7.19342
m	-7.19623
▁phương	-7.20202
▁thời	-7.20568
▁khác	-7.21254
▁học	-7.21346
▁đặc	-7.22801
a	-7.23374
▁A	-7.23684
▁have	-7.26168
▁hoá	-7.27085
▁năng	-7.28076
▁hình	-7.28245
▁tim	-7.28672
▁nhất	-7.2959
▁nội	-7.29616
c	-7.29655
%),	-7.30124
▁tố	-7.3094
▁not	-7.31664
▁như	-7.31917
▁phân	-7.31991
%)	-7.32048
▁after	-7.32443
▁dịch	-7.32684
t	-7.33458
y	-7.35562
▁chỉ	-7.36284
▁tử	-7.36662
▁kháng	-7.37318
▁gian	-7.37327
▁làm	-7.38448
▁B	-7.39124
▁thành	-7.39167
▁năm	-7.39815
▁cắt	-7.40548
▁chất	-7.40667
▁cấp	-7.41821
▁s	-7.42082
▁vào	-7.42256
▁nhiều	-7.4245
▁c	-7.42789
▁nghiệm	-7.42931
▁đó	-7.43044
▁cầu	-7.43692
▁chẩn	-7.43716
▁cần	-7.43964
▁vi	-7.44157
▁thư	-7.44167
▁kinh	-7.44261
▁S	-7.44443
▁ngày	-7.44822
▁loạn	-7.44985
▁bào	-7.45981
▁thận	-7.46627
o	-7.46844
▁luận	-7.47084
▁rate	-7.47349
▁đã	-7.47583
%).	-7.47941
▁disease	-7.48563
▁phổi	-7.49454
▁h	-7.49465
▁gồm	-7.49522
▁áp	-7.49711
ing	-7.4977
▁u	-7.49972
▁so	-7.50121
▁group	-7.50132
▁loại	-7.50578
▁toàn	-7.50813
▁Nghiên	-7.51527
▁triệu	-7.5247
▁trước	-7.5282
▁nguyên	-7.53223
▁p	-7.53987
▁ứng	-7.5464
▁biệt	-7.54854
▁In	-7.56166
▁mức	-7.56194
▁ung	-7.56434
▁đau	-7.56533
▁trạng	-7.57009
▁cases	-7.57229
▁nguy	-7.57752
▁than	-7.57869
▁qua	-7.58388
▁thấy	-7.58788
▁việc	-7.59563
▁đối	-7.59797
▁đánh	-7.60319
▁phải	-7.60477
▁tổn	-7.61007
▁nh	-7.61235
▁thần	-7.61281
▁xương	-7.63077
▁lần	-7.63503
▁bao	-7.63515
▁tình	-7.6354
▁mổ	-7.63709
▁xác	-7.64039
▁thông	-7.6503
▁giữa	-7.65722
▁tương	-7.66038
▁chế	-7.66329
▁ảnh	-7.66663
▁gan	-7.66954
nh	-7.67499
▁sống	-7.67809
▁thai	-7.68414
▁hospital	-7.68637
▁rối	-7.68761
▁tác	-7.68979
▁should	-7.69672
▁Results	-7.70199
▁khoa	-7.70211
▁children	-7.71087
▁results	-7.71095
▁da	-7.71389
▁dưới	-7.71996
▁mg	-7.72721
▁D	-7.73286
▁gặp	-7.73461
▁suy	-7.73503
▁had	-7.73609
▁đoạn	-7.74026
▁nặng	-7.74084
▁H	-7.74168
▁xuất	-7.74217
ed	-7.74385
▁âm	-7.74584
▁não	-7.74801
▁tự	-7.74963
▁clinical	-7.74983
▁surgery	-7.75369
▁cả	-7.75808
▁tâm	-7.75906
▁tượng	-7.76116
▁blood	-7.76156
eg	-7.76451
▁age	-7.76662
▁thức	-7.7668
▁phần	-7.76729
▁years	-7.76971
▁chiếm	-7.77678
▁L	-7.77779
▁which	-7.77822
▁dụ	-7.78106
▁quản	-7.78618
▁tích	-7.78915
▁phụ	-7.79003
▁hành	-7.79867
▁Đánh	-7.79911
▁ngh	-7.80107
▁has	-7.80371
▁xét	-7.80388
▁đề	-7.80433
▁risk	-7.80852
▁khuẩn	-7.80882
▁Mục	-7.81808
▁between	-7.82157
▁but	-7.82714
▁trùng	-7.82766
▁trình	-7.82909
▁tả	-7.83506
▁most	-7.83529
▁nữ	-7.83648
▁tu	-7.83685
▁nhưng	-7.83847
▁factors	-7.83992
ví	-7.84336
▁high	-7.84491
▁vị	-7.85821
▁tiến	-7.8634
▁Hospital	-7.86504
▁Từ	-7.86834
▁who	-7.86856
▁nước	-7.88139
▁nên	-7.88238
▁chủ	-7.88404
▁thấp	-7.88559
▁tiếp	-7.89398
▁dẫn	-7.89684
▁công	-7.90186
▁lại	-7.90329
▁more	-7.90448
▁lớn	-7.90462
▁soi	-7.90801
▁truyền	-7.90896
▁patient	-7.91005
▁common	-7.91602
▁Đối	-7.92089
▁used	-7.92329
▁sát	-7.92472
▁tiểu	-7.9305
▁nhận	-7.93211
▁cancer	-7.9415
▁mặt	-7.94572
▁chức	-7.95911
▁thống	-7.96274
▁triển	-7.96499
▁vấn	-7.96757
▁liệu	-7.96788
▁tuyến	-7.97137
▁this	-7.97396
▁khối	-7.97642
▁Conclusion	-7.98005
▁thay	-7.9812
▁đa	-7.98347
▁biểu	-7.98984
▁hồi	-7.99248
▁đổi	-7.99527
▁time	-7.99619
▁dư	-7.99628
▁hai	-7.99966
▁gia	-8.00183
▁mạc	-8.00359
▁khoá	-8.00362
▁đồng	-8.00377
▁other	-8.01589
▁bộ	-8.01657
▁also	-8.01953
▁y	-8.01968
▁trọng	-8.02087
▁b	-8.02274
▁nhiên	-8.02498
▁To	-8.02628
▁d	-8.02676
▁symptoms	-8.03353
%;	-8.03457
▁khớp	-8.03664
▁hội	-8.03997
▁thiếu	-8.04178
▁dùng	-8.04346
▁tốt	-8.04441
▁thiết	-8.04458
▁cảm	-8.04546
T	-8.04616
▁thanh	-8.05182
▁Điều	-8.05228
▁infection	-8.05262
▁hệ	-8.05413
▁lực	-8.05639
▁di	-8.05929
▁sức	-8.06148
▁hoạt	-8.06671
▁giới	-8.06901
▁dạng	-8.0722
▁Trong	-8.07237
▁bất	-8.07281
▁tạo	-8.07314
▁vong	-8.07936
▁chuyển	-8.08014
▁giai	-8.08389
▁thu	-8.09194
▁hưởng	-8.09212
▁no	-8.09469
▁P	-8.09495
▁trí	-8.09635
▁chính	-8.0998
al	-8.10027
▁M	-8.10495
▁pain	-8.10666
▁dài	-8.1107
▁months	-8.11219
▁cause	-8.11542
▁cách	-8.11602
▁vùng	-8.11629
▁ch	-8.1171
▁phòng	-8.11894
▁ống	-8.13615
▁màng	-8.13728
▁non	-8.14035
▁còn	-8.14181
▁r	-8.14215
▁N	-8.14239
▁Phương	-8.15854
▁Có	-8.16061
▁tiên	-8.16474
▁mắc	-8.16481
▁using	-8.1685
▁nam	-8.16937
▁khí	-8.17059
▁sản	-8.17081
C	-8.17351
▁cung	-8.18005
▁tái	-8.18051
▁viên	-8.18428
▁quá	-8.18505
▁tỉ	-8.18656
▁lên	-8.19031
▁There	-8.19418
▁khả	-8.20267
▁kiểm	-8.20293
▁some	-8.20434
▁acute	-8.20478
▁xả	-8.20746
▁tay	-8.20846
▁CT	-8.20899
▁tiền	-8.20986
▁K	-8.21225
▁giải	-8.21935
▁thế	-8.2224
▁diagnosis	-8.22344
▁v	-8.2277
▁rất	-8.22888
▁ăn	-8.22975
▁severe	-8.23073
▁during	-8.24118
▁thiệp	-8.24348
▁when	-8.25008
▁ít	-8.25139
▁tuần	-8.25333
▁it	-8.25694
▁been	-8.25779
▁em	-8.26899
▁Đặ	-8.2693
▁chúng	-8.2693
▁mạn	-8.27175
▁Keywords	-8.27267
▁nồng	-8.2728
▁V	-8.27346
▁ngoài	-8.27946
▁about	-8.28057
▁thất	-8.281
▁This	-8.28598
▁health	-8.29071
▁khám	-8.30114
▁nếu	-8.30217
▁tràng	-8.303
▁thở	-8.30345
▁độc	-8.30355
▁đại	-8.30894
ly	-8.31054
g	-8.31143
▁giúp	-8.3121
▁if	-8.31491
▁Nam	-8.31628
▁women	-8.31835
▁therapy	-8.31851
▁giờ	-8.31968
▁usually	-8.32258
▁syndrome	-8.32315
▁higher	-8.32493
d	-8.32762
▁phổ	-8.33328
▁dấu	-8.33352
▁đơn	-8.33427
▁tôi	-8.33555
▁kg	-8.33765
▁method	-8.33867
r	-8.33985
▁use	-8.34143
▁liều	-8.34272
▁cổ	-8.34634
▁ngang	-8.34679
▁E	-8.34879
▁type	-8.3505
▁hướng	-8.35537
▁chống	-8.35745
▁treated	-8.36214
▁kích	-8.36542
▁level	-8.36645
▁mm	-8.36707
▁phẩm	-8.38545
▁include	-8.38633
▁uống	-8.38667
▁hoàn	-8.38671
▁đ	-8.38683
▁thích	-8.3884
▁chronic	-8.38925
▁such	-8.38983
▁Những	-8.39259
▁hấp	-8.39436
▁sớm	-8.3973
▁sóc	-8.40232
▁niệu	-8.40292
▁tiết	-8.40365
▁Methods	-8.40893
▁days	-8.41167
▁Một	-8.41499
▁bụng	-8.41753
▁Treatment	-8.42339
▁bên	-8.42456
▁vì	-8.4247
▁đều	-8.42507
▁cân	-8.42976
▁tắc	-8.43055
▁mất	-8.43243
▁răng	-8.43376
▁vật	-8.43582
▁tiêm	-8.43593
▁khoảng	-8.43903
▁sơ	-8.44008
▁Chẩ	-8.44054
▁often	-8.44451
▁đột	-8.44936
▁mật	-8.45215
▁all	-8.45394
▁miễn	-8.45404
▁ngoại	-8.45579
N	-8.45877
▁Patients	-8.4598
▁thân	-8.46005
▁dày	-8.46142
▁care	-8.46505
▁mối	-8.46655
▁increased	-8.46964
▁cải	-8.47001
▁Việt	-8.47188
▁one	-8.47685
▁trực	-8.4781
▁there	-8.48055
▁chi	-8.48804
▁hạn	-8.48897
▁low	-8.48978
▁kho	-8.49345
▁nhau	-8.49379
▁mắt	-8.49483
▁kê	-8.49864
▁due	-8.49959
▁significant	-8.50166
▁complications	-8.50322
▁ruột	-8.50422
▁chảy	-8.50505
▁chuẩn	-8.50511
▁mean	-8.50701
▁characteristics	-8.50848
▁nhập	-8.50869
▁drugs	-8.51335
▁people	-8.51538
▁bởi	-8.51553
▁đạt	-8.51697
▁thứ	-8.51771
▁cận	-8.51774
D	-8.51988
▁tháo	-8.52352
siêu	-8.52556
▁chăm	-8.5293
▁first	-8.53091
▁levels	-8.53222
P	-8.53371
▁chưa	-8.53474
▁University	-8.53599
▁mẫu	-8.53661
▁hay	-8.53803
▁thiện	-8.53994
▁day	-8.54059
▁gen	-8.54115
▁đi	-8.54162
▁khó	-8.54241
▁before	-8.5457
▁dinh	-8.55068
▁chọn	-8.55107
▁giác	-8.55115
▁I	-8.55431
▁disorders	-8.55664
▁quang	-8.5594
▁Trung	-8.5595
▁ngực	-8.56117
▁their	-8.56488
▁test	-8.56521
▁thì	-8.56636
▁ban	-8.56684
▁đồ	-8.56919
▁dương	-8.57291
M	-8.57403
▁BN	-8.57885
▁bảo	-8.57944
);	-8.57988
▁tinh	-8.58079
▁average	-8.58562
▁failure	-8.58567
▁related	-8.58676
▁chân	-8.58768
▁ml	-8.59124
▁Tuy	-8.59136
▁thêm	-8.59186
▁among	-8.59466
▁bạch	-8.59634
▁because	-8.59698
▁nào	-8.59723
▁ca	-8.60054
▁đặt	-8.60133
▁soát	-8.60699
▁heart	-8.61154
▁MD	-8.61171
▁dị	-8.61186
▁giáp	-8.61312
▁ức	-8.61466
▁control	-8.61502
▁kéo	-8.61766
▁including	-8.61904
▁đái	-8.62082
A	-8.62165
▁lower	-8.62365
▁dạ	-8.62637
▁cm	-8.62765
▁cell	-8.62789
▁these	-8.62973
▁kiến	-8.63141
▁cross	-8.63475
▁dục	-8.63496
▁nhanh	-8.63699
▁hết	-8.63798
▁result	-8.63846
▁xạ	-8.64103
▁only	-8.64277
▁trợ	-8.64285
▁causes	-8.64577
▁chấn	-8.64616
▁tai	-8.65012
▁pressure	-8.65064
S	-8.65258
▁mang	-8.65374
▁phản	-8.65546
▁phục	-8.65874
▁đo	-8.66021
▁associated	-8.66038
▁dự	-8.66189
u	-8.66244
▁phù	-8.66608
▁evaluate	-8.66859
▁đáp	-8.66969
▁dựa	-8.67156
▁hours	-8.67361
▁diabetes	-8.67468
▁thủ	-8.67539
▁G	-8.67654
▁However	-8.67988
▁ghép	-8.68003
▁tỉnh	-8.68317
▁respectively	-8.68324
▁case	-8.68347
▁drug	-8.68573
▁hô	-8.68651
▁two	-8.68677
▁lọc	-8.6879
▁normal	-8.68881
▁chụp	-8.68921
▁over	-8.69255
▁Diagnosis	-8.6945
▁HIV	-8.69614
▁effects	-8.69857
▁thái	-8.69938
▁skin	-8.69989
▁phút	-8.70383
sectional	-8.7043
▁vận	-8.70444
▁g	-8.70521
▁Objective	-8.70618
▁protein	-8.70903
▁căn	-8.71121
▁nhằm	-8.71177
▁old	-8.71255
▁tumor	-8.71452
▁without	-8.71496
▁xơ	-8.71605
▁Nếu	-8.71635
▁lưu	-8.71776
▁disorder	-8.71888
▁Objectives	-8.72311
▁tập	-8.72378
▁II	-8.72491
▁con	-8.72775
▁good	-8.73039
▁Khả	-8.73104
▁cáo	-8.73345
▁báo	-8.73601
▁điện	-8.74199
▁trở	-8.74339
▁methods	-8.74858
▁early	-8.75247
▁effective	-8.75603
▁thuộc	-8.75949
▁If	-8.76145
I	-8.76146
▁co	-8.76462
▁tra	-8.76728
▁tin	-8.77125
▁surgical	-8.77387
▁knowledge	-8.77629
▁renal	-8.77755
▁Background	-8.78179
▁liver	-8.78291
▁serum	-8.7845
in	-8.78557
▁nhạy	-8.78993
▁into	-8.79347
▁máy	-8.79406
▁cùng	-8.79444
▁đang	-8.79593
▁thị	-8.79839
▁groups	-8.79942
▁đủ	-8.80113
▁sốt	-8.80133
▁IV	-8.80318
▁many	-8.80351
▁mortality	-8.80755
▁nằm	-8.80843
▁dây	-8.80894
▁artery	-8.80914
▁lá	-8.80993
▁lesions	-8.81303
▁done	-8.81416
▁chung	-8.81712
▁status	-8.81764
▁cộng	-8.81771
▁Không	-8.81882
▁tổng	-8.81983
▁trái	-8.82005
ác	-8.82065
▁hàng	-8.82261
▁nhi	-8.82363
▁showed	-8.82693
ự	-8.83021
▁quy	-8.8336
▁ngừa	-8.83512
▁lấy	-8.83751
▁lập	-8.83768
▁pulmonary	-8.83898
▁đạo	-8.84061
▁hàm	-8.84389
h	-8.84681
▁those	-8.84846
▁Minh	-8.84857
▁diseases	-8.85022
▁cells	-8.85049
▁well	-8.85334
▁occur	-8.85503
▁Theo	-8.85549
▁they	-8.86078
▁vết	-8.86127
▁cụ	-8.86473
▁hạ	-8.86572
▁prevalence	-8.86786
B	-8.8699
▁mới	-8.87495
▁ương	-8.87806
▁function	-8.8788
▁miệng	-8.8789
▁vẫ	-8.87921
▁Thời	-8.88016
▁nang	-8.88124
▁Conclusions	-8.88185
▁đây	-8.88215
▁dân	-8.88232
▁Viêm	-8.88337
▁bắt	-8.88407
▁vòng	-8.88424
ic	-8.88514
▁both	-8.8857
▁It	-8.88878
▁intervention	-8.88994
▁weeks	-8.89056
▁nhịp	-8.89242
▁score	-8.89374
▁x	-8.89394
▁lợi	-8.89472
▁positive	-8.89906
...	-8.90104
▁mà	-8.90387
▁number	-8.90408
▁rộng	-8.90551
▁total	-8.90632
▁For	-8.90728
OR	-8.9073
▁less	-8.91012
▁injury	-8.91269
▁loss	-8.91382
▁tục	-8.91752
▁vitamin	-8.91863
▁quality	-8.92004
▁mở	-8.92215
▁U	-8.92288
▁R	-8.92298
▁hạch	-8.92485
▁glucose	-8.9316
▁tumors	-8.93195
▁mL	-8.93563
▁đáng	-8.93698
▁MRI	-8.93829
▁dose	-8.93865
▁examination	-8.94209
▁kh	-8.94233
▁Tỉ	-8.9446
▁bàn	-8.945
▁caused	-8.94683
▁CI	-8.94749
▁Vietnam	-8.94765
▁bác	-8.94928
b	-8.9495
▁kể	-8.95083
▁hypertension	-8.95228
▁based	-8.95306
▁we	-8.95326
▁gần	-8.95397
▁present	-8.95401
▁F	-8.9543
▁trú	-8.95542
▁research	-8.95644
▁khảo	-8.95892
▁tìm	-8.9605
▁acid	-8.96115
▁tới	-8.9624
▁lượt	-8.96316
▁value	-8.96605
▁men	-8.9664
▁tất	-8.96841
▁khu	-8.96919
▁times	-8.96956
▁infections	-8.97218
▁dù	-8.97468
▁Mô	-8.97508
▁Symptoms	-8.97572
l	-8.97618
▁life	-8.97699
▁COVID	-8.97701
▁under	-8.97813
▁out	-8.98686
▁vệ	-8.98722
▁diagnosed	-8.98746
▁nó	-8.9884
▁increase	-8.98999
▁conducted	-8.99218
▁liệt	-8.99488
▁An	-8.99775
▁bone	-9.00054
▁họ	-9.00158
▁đình	-9.00343
▁đôi	-9.00354
▁xuyên	-9.00466
▁primary	-9.00492
▁weight	-9.00498
▁virus	-9.00737
▁lao	-9.00774
▁tối	-9.00898
▁vai	-9.01007
▁chu	-9.01295
▁compared	-9.01387
▁giả	-9.01441
uân	-9.01647
▁respiratory	-9.0176
▁dung	-9.01861
▁trừ	-9.02296
▁biết	-9.02536
▁left	-9.02731
▁xã	-9.03483
▁ghi	-9.03607
▁determine	-9.03656
▁chỉnh	-9.03767
▁sắc	-9.03868
▁lớp	-9.04052
▁Phẫu	-9.04099
▁sở	-9.04156
▁phế	-9.04167
▁Sau	-9.04243
▁very	-9.04308
▁hậu	-9.04673
▁significantly	-9.04753
▁studies	-9.0505
▁thước	-9.05289
▁lung	-9.0554
▁phố	-9.05565
▁effect	-9.05725
▁trầm	-9.05854
▁bleeding	-9.05993
▁history	-9.06096
▁testing	-9.06124
▁cấy	-9.06268
▁càng	-9.06283
▁help	-9.06328
▁system	-9.06459
L	-9.06564
▁stage	-9.06616
▁found	-9.06656
▁rằng	-9.06678
▁xâ	-9.06722
▁anti	-9.06819
▁van	-9.07008
▁body	-9.07029
▁ổ	-9.07037
▁rút	-9.07138
▁Nội	-9.0724
▁III	-9.07286
▁Tr	-9.07419
▁right	-9.07439
▁tests	-9.07545
▁male	-9.07807
▁through	-9.0808
▁diện	-9.08159
H	-9.08239
▁sâu	-9.08292
▁female	-9.08596
▁thừa	-9.08816
▁thang	-9.08916
▁túi	-9.0902
▁descriptive	-9.09046
▁Medicine	-9.09073
▁ngủ	-9.09546
▁vành	-9.09563
U	-9.0963
th	-9.09746
▁tư	-9.09801
▁mục	-9.09822
▁students	-9.09906
▁bổ	-9.09928
▁long	-9.10049
▁suất	-9.10226
▁management	-9.10309
▁technique	-9.1043
▁require	-9.10455
▁nhà	-9.10502
▁hiếm	-9.10529
▁up	-9.10538
▁concentration	-9.10936
▁Medical	-9.10967
up	-9.10978
▁cứng	-9.11134
▁response	-9.11286
▁bản	-9.11408
▁phối	-9.11585
▁insulin	-9.11854
▁cực	-9.12247
▁Key	-9.12271
▁kidney	-9.1234
▁vú	-9.12362
▁hầu	-9.12581
▁thắt	-9.12686
▁sánh	-9.12816
▁important	-9.12954
▁oral	-9.12985
▁Patient	-9.13021
▁food	-9.13263
▁pregnancy	-9.13483
▁tissue	-9.13718
▁features	-9.13972
▁sọ	-9.14378
▁phì	-9.14648
▁kế	-9.14962
▁Clinical	-9.15034
▁accounted	-9.1507
▁đưa	-9.1554
▁especially	-9.15649
▁tật	-9.15658
▁xúc	-9.15823
▁practice	-9.15961
▁hút	-9.16087
▁ngay	-9.16154
▁dòng	-9.16262
▁ratio	-9.16405
▁thụ	-9.16413
▁trưởng	-9.16417
▁performed	-9.16447
▁fever	-9.16698
▁đông	-9.16832
▁given	-9.16847
▁signs	-9.16874
▁lúc	-9.16876
▁province	-9.1692
▁ưu	-9.17219
▁đúng	-9.1742
or	-9.17485
▁any	-9.17496
▁tồn	-9.17837
▁lựa	-9.17937
▁trứng	-9.18121
▁xem	-9.1816
▁mạnh	-9.18179
ất	-9.1825
▁chủng	-9.1847
▁ích	-9.18672
▁dược	-9.18708
▁according	-9.18898
▁decreased	-9.19072
▁within	-9.19305
▁thử	-9.19309
▁Đ	-9.19404
%);	-9.19497
▁môi	-9.19499
▁cố	-9.19674
▁year	-9.19813
▁difference	-9.1988
▁minutes	-9.19888
▁vậy	-9.20024
▁cardiac	-9.20151
▁béo	-9.20258
▁tham	-9.20259
▁tránh	-9.2062
▁Chú	-9.208
▁nghiêm	-9.20876
▁By	-9.20892
▁procedure	-9.21109
▁oxy	-9.21197
▁small	-9.21366
▁lòng	-9.21418
▁khuyế	-9.21493
▁nghi	-9.2175
▁abdominal	-9.21761
▁activity	-9.21863
▁post	-9.21924
▁mềm	-9.2212
riệu	-9.2213
F	-9.22212
▁giãn	-9.22245
▁city	-9.22313
er	-9.22376
▁findings	-9.22397
▁coronary	-9.22528
▁gãy	-9.22629
▁general	-9.22725
▁analysis	-9.22805
▁occurs	-9.22848
▁ngờ	-9.22905
▁duy	-9.2307
▁kim	-9.23076
▁cuộc	-9.23438
▁minh	-9.23512
es	-9.24141
▁different	-9.24401
▁carcinoma	-9.24582
▁nấm	-9.24643
▁follow	-9.24797
▁need	-9.24835
▁kém	-9.24928
▁nuôi	-9.25006
▁chí	-9.25209
▁size	-9.25569
▁fluid	-9.25731
▁Most	-9.2576
▁trò	-9.2578
▁Do	-9.25927
▁Method	-9.2609
see	-9.26123
▁Department	-9.26324
▁Review	-9.26336
▁tê	-9.26495
▁lành	-9.26801
▁cột	-9.26891
▁sung	-9.27004
▁trì	-9.27033
▁resistance	-9.27036
▁vô	-9.27221
▁Tuổi	-9.27297
▁proportion	-9.27405
▁changes	-9.27456
▁Children	-9.27472
▁Thuốc	-9.27499
▁cá	-9.27564
▁nerve	-9.27664
▁Đại	-9.27713
▁Chi	-9.27996
▁Thg	-9.28011
▁nối	-9.2822
▁nôn	-9.28221
▁chiều	-9.28303
▁Some	-9.28492
▁gốc	-9.28595
▁Education	-9.28701
▁imaging	-9.28944
▁beta	-9.29253
▁Ho	-9.29522
▁ngăn	-9.29756
▁Cần	-9.30124
▁All	-9.30138
▁large	-9.30182
▁develop	-9.30204
▁nhiệt	-9.30303
▁Nguyên	-9.30384
▁chuyên	-9.30388
▁Phân	-9.30418
▁cường	-9.30796
▁sometimes	-9.30982
▁its	-9.31106
▁After	-9.31317
▁ngắn	-9.31373
▁bước	-9.31464
▁death	-9.31881
▁postoperative	-9.31961
▁highest	-9.32101
▁nhu	-9.32158
▁considered	-9.32242
▁kính	-9.32409
▁physical	-9.32707
▁survival	-9.32844
▁Nhóm	-9.32894
▁brain	-9.33199
▁period	-9.3332
▁lan	-9.33353
▁bẩm	-9.33466
▁Đa	-9.33466
▁biện	-9.33499
▁evaluation	-9.33574
▁lipid	-9.33607
▁mê	-9.33701
▁stroke	-9.33794
▁bàng	-9.33861
▁cục	-9.33893
▁IL	-9.33926
▁having	-9.34046
▁ventricular	-9.34373
▁safety	-9.34447
▁ba	-9.34501
▁gene	-9.34888
▁deficiency	-9.3526
▁nhồi	-9.35376
▁typically	-9.35415
▁View	-9.35432
▁pneumonia	-9.35644
▁khởi	-9.357
▁hồng	-9.35741
▁cấu	-9.3589
▁No	-9.35973
▁criteria	-9.36004
▁môn	-9.36037
▁Revised	-9.36154
▁điển	-9.36351
▁qu	-9.36353
▁th	-9.36435
▁cảnh	-9.36574
▁relationship	-9.36767
▁breast	-9.37282
▁Khi	-9.3742
▁Việ	-9.37423
▁These	-9.3743
▁necessary	-9.37584
▁nguồn	-9.37702
O	-9.37865
▁Study	-9.37888
▁Result	-9.37988
▁percentage	-9.38041
▁adults	-9.3805
to	-9.38096
▁xoang	-9.38277
▁xử	-9.38561
▁vực	-9.38588
▁chest	-9.38609
▁older	-9.38617
▁Hội	-9.38641
▁cơn	-9.38642
▁Signs	-9.38772
▁chậm	-9.38878
▁specific	-9.38998
▁kiện	-9.39016
▁index	-9.39075
▁loét	-9.39082
▁đích	-9.39244
▁antibiotics	-9.39445
G	-9.39761
▁Nhi	-9.39769
▁assess	-9.39937
▁Tổ	-9.3994
xem	-9.40142
▁phác	-9.40332
▁Hà	-9.40441
▁particularly	-9.40446
▁statistically	-9.41579
▁needed	-9.41593
quang	-9.41839
▁correlation	-9.41875
▁mmol	-9.41885
▁quanh	-9.42106
▁Nhiễm	-9.42211
▁stress	-9.42349
▁O	-9.42432
▁lây	-9.42702
▁kiểu	-9.42764
▁dễ	-9.42866
▁cuối	-9.42867
▁laparoscopic	-9.42937
▁tract	-9.42951
▁catheter	-9.43009
▁water	-9.43059
▁shock	-9.4313
▁factor	-9.43274
▁chứa	-9.43663
▁Center	-9.43761
▁nay	-9.4377
▁prevent	-9.43776
▁muscle	-9.43831
▁data	-9.44129
▁hormone	-9.44204
▁mild	-9.44236
▁upper	-9.44412
▁vụ	-9.4446
R	-9.44489
V	-9.4454
▁khá	-9.44798
▁bài	-9.45009
▁reduce	-9.45059
▁Số	-9.45158
▁hiểu	-9.45207
▁bảng	-9.45279
st	-9.453
an	-9.45368
▁new	-9.45369
▁ngón	-9.4539
▁pre	-9.45474
▁duration	-9.45563
▁lấn	-9.4563
▁improve	-9.45662
▁ngược	-9.45665
▁lưng	-9.45682
▁đầy	-9.45696
▁role	-9.45825
▁outcomes	-9.45981
▁area	-9.46137
▁Hoa	-9.46619
▁side	-9.46701
▁trúc	-9.46807
▁BMI	-9.46865
▁chậu	-9.46944
▁still	-9.47001
▁Chỉ	-9.47156
▁elderly	-9.47237
▁đốt	-9.47238
▁Nồ	-9.47322
hen	-9.47744
▁followed	-9.47745
▁outcome	-9.47755
▁volume	-9.47954
▁sốc	-9.48001
▁safe	-9.48039
▁ultrasound	-9.48223
▁infants	-9.48629
▁trauma	-9.48652
▁Độ	-9.48984
▁suspected	-9.49266
term	-9.49404
▁màu	-9.49477
▁tiếng	-9.49674
▁nói	-9.49678
▁phóng	-9.49757
▁sensitivity	-9.49789
▁gợi	-9.49895
▁Point	-9.49897
▁ph	-9.50025
▁thiểu	-9.50034
▁included	-9.50072
▁our	-9.50175
▁PCR	-9.50371
▁CD	-9.50431
▁effectiveness	-9.50441
▁thuận	-9.50561
▁report	-9.50592
▁will	-9.5074
▁gấp	-9.50828
▁antibiotic	-9.51139
▁prevention	-9.51334
▁dần	-9.51374
▁Cho	-9.51439
▁dysfunction	-9.51505
▁rates	-9.5152
▁combination	-9.51595
▁samples	-9.51683
ấu	-9.51907
NG	-9.52241
us	-9.52265
▁huyện	-9.52419
▁corticosteroid	-9.52519
▁biopsy	-9.52829
▁grade	-9.52872
▁central	-9.52898
▁each	-9.53236
▁hoà	-9.5338
▁district	-9.53808
▁department	-9.53981
▁ổn	-9.54115
▁possible	-9.54207
▁xe	-9.54353
▁tuy	-9.5438
▁ho	-9.54433
▁negative	-9.54692
▁identify	-9.54743
▁đóng	-9.5479
▁từng	-9.54927
▁bacteria	-9.55029
▁combined	-9.55032
▁obstruction	-9.55052
▁hữu	-9.55079
▁Ung	-9.55164
▁plasma	-9.55232
▁vạt	-9.5533
▁multiple	-9.55693
▁similar	-9.55781
▁giật	-9.55781
▁Bình	-9.55852
▁incidence	-9.55994
▁commonly	-9.56345
▁anemia	-9.56352
▁Evaluation	-9.56868
▁xa	-9.56986
▁thyroid	-9.5707
▁nâng	-9.57238
▁Health	-9.57249
▁phía	-9.57334
▁lo	-9.57606
▁family	-9.5761
▁indicated	-9.57651
▁prospective	-9.57781
▁họng	-9.58026
▁bố	-9.58108
▁lympho	-9.58111
▁hạt	-9.5821
▁bán	-9.58213
▁nghị	-9.58496
▁tài	-9.58684
ét	-9.58695
▁urinary	-9.5876
▁affected	-9.58953
▁bướu	-9.59029
▁tần	-9.59084
▁vắc	-9.59116
▁Tăng	-9.59262
▁anterior	-9.59332
▁rare	-9.59348
▁evaluated	-9.59469
▁Thông	-9.59481
E	-9.59565
▁abnormalities	-9.59739
▁rượu	-9.59761
▁available	-9.59823
▁must	-9.59862
▁hoại	-9.59907
▁hepatitis	-9.59908
▁moderate	-9.59923
▁ác	-9.6021
▁niêm	-9.60219
▁niên	-9.60253
▁diagnostic	-9.60405
▁areas	-9.60545
▁National	-9.60631
▁reduced	-9.60817
▁Hồ	-9.60903
▁cản	-9.60905
▁anesthesia	-9.60912
ray	-9.60969
▁câu	-9.61036
▁Tình	-9.6111
▁DNA	-9.61144
▁Khoa	-9.61218
ầu	-9.61328
▁while	-9.61377
▁severity	-9.61589
▁Chí	-9.6182
▁initial	-9.61869
▁efficacy	-9.61913
▁xuống	-9.6204
▁subjects	-9.62079
▁thập	-9.6238
k	-9.62387
▁bạn	-9.62417
▁góp	-9.62565
▁dựng	-9.62903
▁head	-9.63073
▁muốn	-9.63163
▁being	-9.63193
▁sang	-9.63292
em	-9.63292
▁ràng	-9.63784
▁nhãn	-9.63799
▁decrease	-9.6384
▁spinal	-9.63936
▁buồng	-9.63938
▁Rố	-9.64192
▁complication	-9.6421
▁information	-9.64251
hực	-9.64262
▁vài	-9.64287
▁nghiệp	-9.64433
▁pregnant	-9.6446
▁birth	-9.64743
▁causing	-9.64808
▁Research	-9.64874
▁depend	-9.64943
▁injuries	-9.64971
▁lâu	-9.64981
▁main	-9.65035
▁them	-9.65952
▁So	-9.65967
▁khuyết	-9.65972
▁better	-9.6606
▁TH	-9.66088
▁systemic	-9.66168
▁increases	-9.66217
▁conditions	-9.6648
▁School	-9.66491
▁recommended	-9.66706
▁appropriate	-9.66843
▁does	-9.66865
anuary	-9.66882
▁cervical	-9.66928
▁Central	-9.66974
▁month	-9.67051
▁phức	-9.67139
▁mặc	-9.67149
▁complete	-9.67212
▁recurrent	-9.67237
▁Sử	-9.67413
hài	-9.67552
▁adverse	-9.67759
▁major	-9.67812
▁dL	-9.6782
▁required	-9.67877
▁infarction	-9.67981
▁resection	-9.68114
▁aged	-9.68119
▁Bảng	-9.68326
▁exposure	-9.6833
▁describe	-9.68389
▁trưng	-9.68436
▁phúc	-9.68441
▁poor	-9.69055
iệu	-9.69063
▁đợt	-9.69236
▁process	-9.6934
▁tiện	-9.6946
▁operation	-9.69647
▁giống	-9.69741
▁địa	-9.69802
▁change	-9.69954
▁nhánh	-9.70095
▁every	-9.70173
▁chiết	-9.70212
▁gối	-9.70336
▁Mai	-9.70371
▁Other	-9.70521
le	-9.70611
▁school	-9.70822
▁peripheral	-9.71181
▁sáng	-9.71328
on	-9.71428
▁ventilation	-9.71688
▁depression	-9.71893
▁standard	-9.71955
▁mainly	-9.71956
▁sleep	-9.72047
▁tràn	-9.72149
▁support	-9.72208
▁pylori	-9.72406
▁treat	-9.7241
▁same	-9.7256
▁Tổn	-9.72584
▁hand	-9.72619
▁site	-9.72695
▁Binh	-9.72729
▁Subjects	-9.7282
▁giao	-9.7292
▁growth	-9.72927
gastrointestinal	-9.73019
▁congenital	-9.73103
▁chữa	-9.73156
▁diễn	-9.73165
▁canxi	-9.73341
▁tụ	-9.73342
▁education	-9.73389
▁types	-9.73401
▁damage	-9.7349
▁single	-9.73505
▁even	-9.73749
▁vaccine	-9.73872
▁stenosis	-9.74054
▁applied	-9.74124
▁onset	-9.742
▁cardiovascular	-9.74306
▁three	-9.74313
▁phép	-9.74325
▁several	-9.74344
▁Dược	-9.74508
▁hụt	-9.74591
▁vừa	-9.74624
▁Sep	-9.74671
▁phí	-9.74913
▁Sinh	-9.74922
▁joint	-9.74997
▁Table	-9.75143
▁activities	-9.75306
▁likely	-9.75317
▁bà	-9.75371
▁show	-9.75418
▁chemotherapy	-9.75539
▁mãn	-9.75605
▁workers	-9.7564
▁Đồng	-9.75698
▁Chợ	-9.75699
▁local	-9.75754
▁coli	-9.75853
▁could	-9.75908
▁specificity	-9.76
▁development	-9.76056
▁Tác	-9.76058
▁ép	-9.76083
▁assessment	-9.76108
▁Mean	-9.76172
▁xin	-9.76183
mg	-9.76317
▁screening	-9.76396
▁HBV	-9.7645
ánh	-9.76501
▁dữ	-9.76522
▁quyết	-9.76601
▁muộn	-9.76689
▁re	-9.76733
▁laboratory	-9.76759
▁urine	-9.7676
▁khăn	-9.76818
▁lymph	-9.76832
▁venous	-9.76906
▁hu	-9.77039
▁Materials	-9.77057
▁sữa	-9.77082
▁endoscopic	-9.77087
▁form	-9.77092
▁sa	-9.77122
▁Giang	-9.77332
▁per	-9.7734
▁axit	-9.77368
▁least	-9.77432
▁myocardial	-9.77446
▁hemorrhage	-9.77585
ol	-9.77742
▁medicine	-9.77851
▁laser	-9.77864
▁underwent	-9.77956
▁bacterial	-9.78044
▁gastric	-9.78049
▁vascular	-9.78079
▁thượng	-9.78221
▁posterior	-9.78244
▁reported	-9.78313
▁block	-9.78323
▁abnormal	-9.78351
▁open	-9.78386
ith	-9.78436
▁human	-9.78503
▁manifestations	-9.78544
▁lư	-9.78555
▁loài	-9.7921
▁secondary	-9.79263
▁orally	-9.79312
▁cerebral	-9.79338
▁Rẫy	-9.79375
▁xu	-9.79376
▁end	-9.79525
▁Hanoi	-9.79552
▁dò	-9.79715
▁reduction	-9.79737
▁vs	-9.80022
▁against	-9.80052
▁increasing	-9.80153
▁City	-9.80192
▁yêu	-9.80275
▁flap	-9.80284
▁đùi	-9.80546
▁Phòng	-9.80587
▁General	-9.80699
▁tá	-9.80767
Ngoài	-9.8077
▁fracture	-9.80856
x	-9.80872
▁condition	-9.8109
▁obesity	-9.81158
Kết	-9.81223
▁Mở	-9.81298
at	-9.81339
▁asthma	-9.81432
▁needle	-9.81545
▁chương	-9.81604
▁nền	-9.81699
▁injection	-9.81741
▁chuột	-9.82049
▁difficult	-9.8214
▁Nguyen	-9.82184
▁tạng	-9.8219
▁until	-9.82273
is	-9.82289
HO	-9.82483
▁giáo	-9.82808
▁thẩm	-9.8302
▁nơi	-9.83029
▁once	-9.83404
▁count	-9.83417
▁did	-9.83427
▁mutations	-9.83646
▁cholesterol	-9.83796
▁sắt	-9.83988
▁length	-9.84196
▁mass	-9.84488
▁lesion	-9.84668
▁chia	-9.84671
▁infected	-9.84672
▁self	-9.84701
▁transplantation	-9.84719
▁TP	-9.84792
▁cây	-9.84797
▁improved	-9.84845
▁hồ	-9.84892
▁Nguy	-9.85147
▁COPD	-9.85149
▁lead	-9.8516
▁neck	-9.85402
▁emergency	-9.85592
▁inflammation	-9.85607
▁arterial	-9.85854
▁culture	-9.85878
▁radiation	-9.86023
▁evidence	-9.86023
iểu	-9.86175
▁chóng	-9.86194
▁hở	-9.86215
ation	-9.86266
▁Thái	-9.86307
▁án	-9.86309
▁bề	-9.86389
▁Modified	-9.86391
▁gân	-9.86412
▁child	-9.86438
v	-9.86587
▁căng	-9.86719
▁tạp	-9.86833
▁degree	-9.86836
and	-9.86865
▁biên	-9.86933
▁detected	-9.87067
▁Giá	-9.87123
▁short	-9.87169
▁metabolic	-9.87332
▁cạnh	-9.87366
▁prognosis	-9.87413
▁góc	-9.87416
▁fractures	-9.87449
▁loạt	-9.87657
▁trương	-9.87659
une	-9.87739
▁detect	-9.87776
▁gọi	-9.87808
▁thoát	-9.87891
▁chịu	-9.87948
▁measured	-9.87995
▁position	-9.88177
▁second	-9.88191
▁ta	-9.88229
▁identified	-9.8841
▁scale	-9.88483
▁edema	-9.88527
▁Mặc	-9.88582
▁lệch	-9.88611
ar	-9.8871
▁hyper	-9.8883
▁Thai	-9.8893
▁elevated	-9.89214
▁table	-9.89303
▁collected	-9.89521
▁Vì	-9.89716
▁natri	-9.89745
▁valve	-9.89821
▁May	-9.89838
▁hộ	-9.8984
▁genetic	-9.89846
▁tổ	-9.90076
▁few	-9.90145
▁Đau	-9.90192
▁calcium	-9.90343
▁tán	-9.90439
▁Mức	-9.90473
▁Acute	-9.90654
▁aureus	-9.90696
▁xung	-9.90736
▁rửa	-9.90761
▁cord	-9.90948
▁classification	-9.91043
thoái	-9.91113
f	-9.91117
▁points	-9.91198
▁shows	-9.91263
▁nhìn	-9.913
▁flow	-9.91516
▁Với	-9.91564
▁HPV	-9.9172
▁phình	-9.91722
▁Ray	-9.91898
▁approach	-9.92005
▁mmHg	-9.92079
the	-9.92172
▁tube	-9.92354
▁doses	-9.92597
late	-9.92598
▁alcohol	-9.92674
▁thuần	-9.92739
▁overall	-9.92786
▁cánh	-9.92848
▁sợi	-9.92871
▁ngừng	-9.92883
▁albumin	-9.92989
▁mothers	-9.93079
▁Nhậ	-9.93116
ạch	-9.93241
▁bóng	-9.93291
ch	-9.93318
▁Định	-9.93399
▁thải	-9.93461
▁week	-9.93494
▁serious	-9.93678
▁attitude	-9.93727
▁From	-9.93912
K	-9.93933
▁however	-9.93976
▁become	-9.94011
▁dọc	-9.94175
▁techniques	-9.94199
▁illness	-9.9431
▁stay	-9.94377
▁order	-9.94451
▁nutritional	-9.94625
▁enzyme	-9.94632
▁AIDS	-9.94636
Người	-9.94688
▁Hồi	-9.94692
related	-9.94732
ây	-9.94737
▁potential	-9.94871
▁presence	-9.94898
▁diarrhea	-9.94904
▁Nguồn	-9.95313
▁Tiền	-9.95326
▁mong	-9.95412
▁hen	-9.95439
▁benign	-9.95578
▁At	-9.95616
it	-9.95836
▁They	-9.95914
▁tan	-9.95939
▁nasal	-9.96034
▁wall	-9.96038
▁rò	-9.96167
▁tiềm	-9.96226
▁nghề	-9.9635
▁chọc	-9.96395
▁Gia	-9.96641
▁useful	-9.96727
iêu	-9.96951
▁eye	-9.97363
▁monitoring	-9.97416
um	-9.97417
▁Although	-9.97483
op	-9.97633
▁gram	-9.97641
▁khoang	-9.97672
▁tốc	-9.97732
▁model	-9.98027
▁Để	-9.98189
▁lạnh	-9.98247
▁đào	-9.98252
▁population	-9.98625
▁scan	-9.98775
▁Therefore	-9.98776
▁bladder	-9.98819
▁delivery	-9.98878
▁bại	-9.98895
▁sửa	-9.99022
▁mcg	-9.99044
▁malignant	-9.9905
▁sót	-9.99101
▁pneumoniae	-9.99113
year	-9.99135
▁diabetic	-9.99151
▁sepsis	-9.99152
▁cửa	-9.99237
▁Tạ	-9.99292
▁chết	-9.99315
▁rung	-9.99503
▁đảm	-9.99594
▁invasive	-9.99651
▁đệm	-9.99921
▁Biến	-9.99999
▁affect	-10.0006
▁provide	-10.0042
▁Điểm	-10.008
▁includes	-10.0085
▁Viet	-10.0092
▁lắng	-10.0097
▁survey	-10.01
▁toan	-10.0104
▁direct	-10.0114
▁tách	-10.0115
▁values	-10.0121
as	-10.0146
▁xây	-10.0148
▁immune	-10.015
▁vomiting	-10.0164
▁vảy	-10.0164
▁mutation	-10.0177
▁suggest	-10.0194
▁mủ	-10.022
re	-10.0232
▁iron	-10.0242
▁ĐTĐ	-10.0293
▁situation	-10.0295
▁Thanh	-10.0298
▁bowel	-10.0301
▁median	-10.0303
▁trắng	-10.0304
▁admission	-10.0304
▁stent	-10.0308
▁majority	-10.031
▁range	-10.032
▁Resources	-10.0321
▁recovery	-10.0328
▁HbA	-10.0331
▁lồng	-10.0332
▁species	-10.0332
▁retrospective	-10.0335
▁Hai	-10.0343
▁nurses	-10.0343
hiều	-10.0351
▁reaction	-10.0357
▁aim	-10.0365
▁repair	-10.0367
▁Subject	-10.0374
▁Topic	-10.0379
▁daily	-10.0391
ề	-10.0409
▁giữ	-10.0409
▁arthritis	-10.0446
▁series	-10.0446
▁un	-10.0463
▁stones	-10.0501
▁buồn	-10.0505
▁wound	-10.0512
▁nạp	-10.0513
▁hospitals	-10.0515
▁Because	-10.0515
▁bù	-10.0524
▁fetal	-10.0527
▁lặp	-10.0528
▁NT	-10.0533
▁aortic	-10.0535
w	-10.0541
▁regimen	-10.0542
▁extract	-10.0546
▁PET	-10.0551
▁then	-10.0553
ve	-10.0557
▁US	-10.0558
▁corticosteroids	-10.056
▁work	-10.056
▁pH	-10.0562
▁functional	-10.0569
▁investigate	-10.0571
▁trang	-10.0573
▁above	-10.0576
▁phá	-10.0577
▁frequency	-10.0584
▁nutrition	-10.0591
▁Đô	-10.0592
▁received	-10.0598
▁admitted	-10.0599
▁vein	-10.0618
▁sex	-10.0627
▁red	-10.0628
▁airway	-10.0629
▁active	-10.0635
▁measures	-10.0645
▁ST	-10.0661
▁Disease	-10.0665
▁Cơ	-10.0677
▁chặt	-10.0679
▁limited	-10.0705
▁Nhân	-10.0708
▁shown	-10.0708
▁phase	-10.071
▁recurrence	-10.0717
▁known	-10.0768
▁overweight	-10.0769
▁bơm	-10.0779
▁khô	-10.0782
▁node	-10.079
▁hepatic	-10.0791
▁carried	-10.0791
▁OF	-10.081
▁addition	-10.0813
▁sạch	-10.0817
▁seen	-10.0818
el	-10.0822
▁atrial	-10.0837
▁certain	-10.0838
▁mental	-10.0845
▁sample	-10.0857
▁procedures	-10.0859
▁detection	-10.0864
▁knee	-10.0864
▁Đây	-10.0869
▁tễ	-10.0887
▁lách	-10.089
Đ	-10.0897
▁ngẫu	-10.0898
▁complex	-10.0902
▁quốc	-10.0904
▁although	-10.092
▁improvement	-10.0921
▁replacement	-10.0946
▁discharge	-10.0947
▁males	-10.0952
▁hơi	-10.0953
▁Thiết	-10.0964
▁oxygen	-10.0968
▁nông	-10.097
▁smoking	-10.0987
▁healthy	-10.1009
▁chiếu	-10.102
▁xấu	-10.1021
▁further	-10.1025
▁khâu	-10.1026
▁inhibitors	-10.1034
▁hít	-10.1038
▁studied	-10.1039
▁current	-10.1052
▁Can	-10.1054
▁hospitalized	-10.1058
▁longer	-10.1064
ml	-10.1065
▁ECG	-10.1075
▁Hình	-10.109
▁OR	-10.1096
▁production	-10.1098
▁đương	-10.1106
▁frequently	-10.1108
▁defects	-10.1111
▁much	-10.112
▁mechanical	-10.1124
▁ischemic	-10.1134
▁intake	-10.1146
▁gắng	-10.1168
▁LDL	-10.1169
▁cắn	-10.1172
▁living	-10.1176
▁nhắc	-10.1197
▁community	-10.1197
▁internal	-10.1203
▁part	-10.1208
▁creatinine	-10.1212
huyên	-10.1213
▁polyp	-10.1229
NH	-10.1233
▁eyes	-10.1233
▁stem	-10.124
▁loãng	-10.1241
▁toxicity	-10.1246
▁point	-10.1251
▁malnutrition	-10.1253
▁determined	-10.126
▁sóng	-10.1271
▁mi	-10.1276
▁pediatric	-10.1276
▁lateral	-10.1291
▁TB	-10.1296
▁exercise	-10.1308
▁Huế	-10.1309
▁mellitus	-10.1315
▁Nó	-10.1315
▁Suy	-10.1335
▁nha	-10.1341
▁College	-10.1353
▁nến	-10.1353
▁viral	-10.1354
▁organ	-10.1357
▁Giảm	-10.136
▁contrast	-10.1368
hụp	-10.1371
▁bì	-10.1372
▁du	-10.1377
▁inflammatory	-10.1385
▁rarely	-10.1388
▁Doppler	-10.1396
▁training	-10.1397
▁hiểm	-10.1404
▁third	-10.1408
▁Long	-10.141
▁tuberculosis	-10.1417
▁giấc	-10.1422
▁soft	-10.1424
▁diameter	-10.1424
▁confirmed	-10.1428
▁nửa	-10.1428
▁intra	-10.1451
▁assessed	-10.1466
▁Hue	-10.1472
▁alpha	-10.1473
▁Military	-10.1473
▁problems	-10.1474
▁Thiếu	-10.1475
▁cong	-10.1492
▁Dinh	-10.1501
▁neonatal	-10.1502
▁young	-10.1515
CT	-10.1517
▁distal	-10.1523
▁phim	-10.1528
▁defect	-10.1529
▁females	-10.1529
▁December	-10.1533
▁kali	-10.1546
▁back	-10.1551
▁móng	-10.1552
▁made	-10.1554
▁diet	-10.157
▁whether	-10.1575
▁anxiety	-10.1614
▁Etiology	-10.162
▁đẩy	-10.162
▁đòi	-10.162
▁controlled	-10.1622
▁mảnh	-10.1627
▁yên	-10.1628
▁tức	-10.1646
ity	-10.1652
ul	-10.1657
able	-10.1658
▁bilirubin	-10.1665
▁isolated	-10.1665
▁solution	-10.1698
▁association	-10.1698
▁agents	-10.1704
▁sụn	-10.1721
▁accounting	-10.1725
▁ability	-10.1735
▁quay	-10.1737
▁thus	-10.1739
▁vàng	-10.1741
▁Kiế	-10.1753
▁parameters	-10.1765
▁free	-10.1768
▁hại	-10.177
▁location	-10.1795
▁tuệ	-10.1798
▁products	-10.1805
▁thủng	-10.1809
▁best	-10.181
▁taken	-10.1812
▁chú	-10.1836
▁ultrasonography	-10.1842
▁center	-10.1844
▁Thành	-10.185
▁motor	-10.1854
▁social	-10.1857
▁riêng	-10.1862
ur	-10.1867
▁advanced	-10.1869
▁Chronic	-10.1872
▁dính	-10.1895
▁lymphoma	-10.1896
▁Tiêu	-10.1906
▁treating	-10.1924
▁satisfaction	-10.1929
▁cost	-10.1934
▁rệt	-10.1935
▁toả	-10.1936
tic	-10.1944
ua	-10.1946
leading	-10.1948
▁prolonged	-10.1949
▁middle	-10.1961
▁words	-10.1964
▁khẩu	-10.1969
▁cái	-10.1992
▁Trường	-10.1995
▁vaginal	-10.1999
▁ngộ	-10.2002
▁nursing	-10.2008
▁Prevention	-10.2015
▁rapid	-10.2016
▁VAS	-10.2018
▁resulting	-10.2027
▁phơi	-10.2028
▁ngành	-10.2056
▁Cross	-10.206
▁Khám	-10.2062
▁thrombosis	-10.2069
un	-10.2076
▁Căn	-10.208
▁Blood	-10.2082
▁transfusion	-10.2092
▁thi	-10.2095
▁giun	-10.2096
▁Viện	-10.2103
▁adult	-10.2124
▁nốt	-10.2137
▁lumbar	-10.2144
▁make	-10.2153
▁sai	-10.2154
▁success	-10.2158
thường	-10.2175
ion	-10.2186
▁THA	-10.2197
▁septic	-10.2201
▁sinus	-10.223
▁symptom	-10.2237
▁Among	-10.2239
▁hygiene	-10.224
▁removal	-10.2241
▁via	-10.2245
▁experience	-10.2249
▁teeth	-10.2252
▁predictive	-10.226
▁working	-10.2266
▁Man	-10.2272
▁Cả	-10.2276
▁thăm	-10.2289
▁review	-10.2292
▁highly	-10.2293
▁taking	-10.2299
▁pha	-10.2303
▁needs	-10.2308
▁strains	-10.234
▁Phụ	-10.2343
▁tomography	-10.2363
▁lupus	-10.2371
xin	-10.2374
▁you	-10.2375
▁pancreatic	-10.2383
▁involved	-10.2393
▁visual	-10.2395
old	-10.2398
▁ngư	-10.2401
▁observed	-10.2412
▁antibodies	-10.2435
▁hoạch	-10.2441
▁world	-10.2447
PCR	-10.2451
▁resistant	-10.2453
▁obtained	-10.2483
▁Nutrition	-10.2489
▁muối	-10.249
▁nề	-10.2494
▁chằng	-10.2498
▁surface	-10.2515
▁Evaluate	-10.2518
line	-10.2529
▁underlying	-10.2531
▁Common	-10.2536
▁CRP	-10.254
▁undergoing	-10.254
▁rốn	-10.2552
▁pelvic	-10.256
▁chấp	-10.2567
▁temperature	-10.2568
▁Kiể	-10.2574
▁previous	-10.2578
▁cancers	-10.2582
▁suggests	-10.2585
▁antibody	-10.2591
▁avoid	-10.2608
▁ngưng	-10.2623
▁headache	-10.2634
▁fat	-10.2636
▁gender	-10.2664
▁cậy	-10.2666
▁take	-10.2672
▁clinically	-10.2675
▁events	-10.2677
ễn	-10.2681
▁ulcer	-10.2685
▁sodium	-10.2703
▁meningitis	-10.271
▁successful	-10.2715
▁sút	-10.2718
▁mệt	-10.2731
▁băng	-10.2753
▁tầm	-10.2763
▁therapeutic	-10.2767
▁arteries	-10.2767
hống	-10.2768
▁seizures	-10.2777
▁sưng	-10.2779
▁another	-10.279
et	-10.2795
▁partial	-10.2802
▁metastasis	-10.2803
▁Đức	-10.2819
▁Non	-10.282
▁various	-10.2825
▁adherence	-10.2838
▁đội	-10.2848
▁Complications	-10.2871
▁appear	-10.2872
▁occurred	-10.2877
▁giản	-10.2878
▁rectal	-10.2879
▁asymptomatic	-10.2884
▁intestinal	-10.2885
▁Dân	-10.2887
ia	-10.2889
▁hs	-10.2909
▁neurologic	-10.2915
▁white	-10.2924
▁nạn	-10.2939
▁khai	-10.2943
▁plus	-10.2945
ate	-10.2948
▁consist	-10.2948
▁correct	-10.2953
▁deep	-10.2974
CoV	-10.298
▁CO	-10.2985
▁Da	-10.2994
ãy	-10.3
▁âu	-10.3001
▁Gram	-10.3002
▁Ninh	-10.3002
▁hemoglobin	-10.3012
▁As	-10.3015
▁opioid	-10.3028
▁greater	-10.3039
▁spp	-10.304
▁teo	-10.3042
▁duct	-10.3045
▁essential	-10.3077
▁ẩn	-10.3083
▁countries	-10.3098
▁PhD	-10.3099
▁multi	-10.3108
▁air	-10.311
▁Sometimes	-10.3113
▁tộc	-10.3113
▁target	-10.312
▁rupture	-10.313
▁IN	-10.3133
▁others	-10.3145
▁gắn	-10.3156
▁Surgical	-10.3158
▁Hải	-10.3159
▁cuống	-10.3182
▁đời	-10.3182
▁stone	-10.3188
▁American	-10.3191
▁chênh	-10.3196
▁where	-10.3202
▁around	-10.3206
▁recorded	-10.3212
▁concentrations	-10.3215
▁frequent	-10.3217
▁developed	-10.3219
▁sexual	-10.3225
▁amount	-10.3229
▁HDL	-10.323
▁compare	-10.3232
operative	-10.3232
▁(%)	-10.3233
▁gai	-10.3235
ally	-10.324
▁hôi	-10.3264
▁Cắt	-10.3272
▁Huyết	-10.3273
▁scores	-10.3275
▁Risk	-10.3286
▁Surgery	-10.3287
▁contact	-10.3288
▁relatively	-10.3288
▁dental	-10.3289
ra	-10.3299
▁design	-10.33
▁bile	-10.3311
based	-10.3312
▁HCM	-10.3313
▁progression	-10.3326
▁application	-10.3345
▁coi	-10.3357
▁cầm	-10.3357
▁pleural	-10.336
▁helps	-10.3364
▁nodes	-10.3367
▁mảng	-10.3389
▁típ	-10.3395
▁reconstruction	-10.3402
▁tưới	-10.3403
▁cannot	-10.3405
▁Cancer	-10.3418
▁Introduction	-10.3418
▁insufficiency	-10.3433
▁nausea	-10.3437
▁More	-10.3441
▁ước	-10.3451
ers	-10.3453
▁characterized	-10.3457
▁examined	-10.3463
▁nuốt	-10.348
▁face	-10.3486
▁achieved	-10.3486
▁ấn	-10.3487
▁dengue	-10.349
▁On	-10.3495
▁simple	-10.3503
▁bú	-10.3503
▁trial	-10.3508
BN	-10.3508
▁Vi	-10.3511
▁maternal	-10.3517
induced	-10.3518
inflammatory	-10.3521
▁Trên	-10.3527
▁abscess	-10.3533
▁affecting	-10.3533
▁receptor	-10.355
▁program	-10.3553
▁light	-10.3578
▁near	-10.358
▁drainage	-10.3589
ương	-10.359
▁treatments	-10.3592
▁steroid	-10.3595
▁vitro	-10.3598
ous	-10.3601
▁BV	-10.3624
▁services	-10.3626
▁fibrosis	-10.3636
▁differences	-10.3649
nd	-10.3657
▁HCV	-10.3658
▁min	-10.366
▁subclinical	-10.3668
▁staff	-10.3673
▁kín	-10.3677
Khoảng	-10.3684
▁characteristic	-10.3685
▁university	-10.3692
See	-10.3698
▁Dengue	-10.3698
ac	-10.3703
▁dầu	-10.3707
▁allergic	-10.3711
▁foreign	-10.3731
▁GI	-10.3737
proBNP	-10.3739
▁PT	-10.3746
▁thúc	-10.375
▁rapidly	-10.3758
▁sub	-10.3761
▁topical	-10.3764
range	-10.3771
uly	-10.3771
▁height	-10.3771
▁f	-10.3794
of	-10.3798
▁cut	-10.38
▁traditional	-10.3804
▁uric	-10.3805
▁operated	-10.3818
▁obstructive	-10.3834
▁Bộ	-10.3838
▁phủ	-10.3852
ph	-10.3852
▁mice	-10.3853
▁benefit	-10.3863
▁problem	-10.3866
▁dao	-10.3866
▁sensitive	-10.3873
HA	-10.3878
▁trục	-10.3883
time	-10.3886
▁lược	-10.3889
▁Our	-10.3893
▁medications	-10.3899
▁root	-10.3901
▁Assessment	-10.3908
▁thảo	-10.3909
▁neonates	-10.391
▁bột	-10.3914
▁necrosis	-10.3917
▁behavior	-10.3918
▁luyện	-10.3925
▁labor	-10.3934
▁rãi	-10.3935
▁images	-10.394
▁đứng	-10.3943
▁Tho	-10.3944
▁Institute	-10.3948
▁expression	-10.3959
▁almost	-10.3965
▁selected	-10.3966
▁toán	-10.3972
▁home	-10.3974
▁sign	-10.3975
▁region	-10.398
▁generally	-10.3985
▁Công	-10.3993
▁spine	-10.3995
▁Tiên	-10.3997
▁ngã	-10.4007
▁ear	-10.4009
▁tầng	-10.402
▁colon	-10.4024
▁tắt	-10.4039
▁mầm	-10.4041
il	-10.4045
▁morbidity	-10.4047
▁percutaneous	-10.4049
▁Using	-10.4055
▁biliary	-10.4057
▁SARS	-10.4058
z	-10.4082
▁Early	-10.4097
▁esophageal	-10.4098
▁HCC	-10.41
▁chiến	-10.4106
▁marrow	-10.4106
▁hour	-10.4116
mm	-10.4118
▁Phá	-10.4129
▁reducing	-10.4134
▁bờ	-10.4148
▁sao	-10.415
▁content	-10.4154
for	-10.416
▁external	-10.4175
▁Group	-10.4184
▁versus	-10.4189
▁hiến	-10.4196
▁ovarian	-10.4216
▁nổi	-10.4218
▁choice	-10.4218
▁Đá	-10.4226
▁facial	-10.4229
▁guidelines	-10.4229
▁văn	-10.423
▁vữa	-10.4238
▁nắn	-10.4252
risk	-10.4263
▁Covid	-10.4266
▁cha	-10.4269
▁mu	-10.4272
▁nghiện	-10.4282
▁course	-10.4287
▁involvement	-10.4289
▁involves	-10.4295
ant	-10.4298
▁fistula	-10.4306
▁membrane	-10.4307
▁unit	-10.4309
▁Tim	-10.4312
▁trật	-10.4314
lo	-10.4314
▁IgG	-10.4316
▁nghe	-10.4324
▁cirrhosis	-10.4328
▁Staphylococcus	-10.4331
▁hearing	-10.4331
▁lông	-10.4338
▁platelet	-10.4339
▁gestational	-10.4342
▁stable	-10.435
▁mọ	-10.4356
▁hospitalization	-10.4365
▁Pharmacy	-10.4373
negative	-10.4382
▁canal	-10.4388
▁mouth	-10.4398
▁last	-10.4403
▁rách	-10.4409
▁March	-10.4416
▁always	-10.4416
▁Parkinson	-10.4433
do	-10.4453
▁Liệu	-10.4476
▁intensive	-10.4477
▁confirm	-10.4479
▁rau	-10.4479
▁full	-10.4491
▁April	-10.4492
▁graft	-10.4498
▁below	-10.4498
▁mụn	-10.4499
▁angle	-10.453
est	-10.4534
▁reactions	-10.4541
▁foot	-10.4544
▁alone	-10.4545
▁cyst	-10.4555
▁Bach	-10.456
▁swelling	-10.4562
▁impaired	-10.457
▁forms	-10.4572
▁Use	-10.458
▁recent	-10.4586
▁prostate	-10.4586
▁ischemia	-10.4592
▁phong	-10.4599
▁Factors	-10.46
▁pg	-10.4624
▁tissues	-10.4625
Liều	-10.4631
▁đáy	-10.4634
▁Overview	-10.464
▁Heart	-10.464
▁PH	-10.4643
▁rễ	-10.4646
▁nervous	-10.4648
▁ứ	-10.4649
▁preterm	-10.4651
▁ICU	-10.4656
▁Candida	-10.4658
▁interventions	-10.4661
▁infectious	-10.4667
▁nghỉ	-10.4667
hậm	-10.4669
▁continuous	-10.4674
▁lứa	-10.4676
óm	-10.4687
ating	-10.4694
▁questionnaire	-10.4702
▁PE	-10.4704
▁release	-10.4709
▁Ch	-10.4717
▁prognostic	-10.4719
di	-10.4733
▁weakness	-10.4745
▁qui	-10.4747
▁Knowledge	-10.4754
▁luôn	-10.4754
co	-10.4769
ân	-10.4774
▁preoperative	-10.4779
▁your	-10.4794
▁triệt	-10.4795
▁typical	-10.4795
▁line	-10.4796
▁now	-10.4801
▁antigen	-10.4807
▁tri	-10.4808
▁adequate	-10.4816
RS	-10.4823
▁either	-10.4834
▁TR	-10.484
▁đỉnh	-10.4843
▁xanh	-10.4846
▁ối	-10.4848
▁pattern	-10.4848
▁Ba	-10.485
▁distribution	-10.4852
▁person	-10.4853
▁directly	-10.4864
▁đêm	-10.4897
echocardiography	-10.4897
▁ngữ	-10.4898
▁find	-10.4899
▁vách	-10.4915
▁August	-10.4918
▁October	-10.4923
▁estrogen	-10.4925
▁parents	-10.493
▁Thus	-10.4933
▁public	-10.495
▁nữa	-10.4955
▁image	-10.496
▁ô	-10.4964
▁pancreatitis	-10.4968
▁Thu	-10.4979
▁aeruginosa	-10.4982
▁cai	-10.4986
▁Drug	-10.499
cell	-10.4993
▁angiography	-10.4995
▁accuracy	-10.4995
▁would	-10.4995
▁divided	-10.4995
▁Ha	-10.5
▁genotype	-10.5002
▁example	-10.5005
▁trans	-10.5012
▁developing	-10.5014
▁vision	-10.5015
▁later	-10.5018
▁limb	-10.5028
CRP	-10.5032
▁medication	-10.5042
▁shoulder	-10.505
▁tested	-10.508
▁mother	-10.5098
including	-10.5098
▁tachycardia	-10.5105
▁removed	-10.5115
▁tải	-10.5117
▁persistent	-10.5128
▁New	-10.514
▁tưởng	-10.5151
ter	-10.5154
▁ngột	-10.5159
ào	-10.5172
▁infusion	-10.5174
uang	-10.5179
▁half	-10.5181
▁progressive	-10.5187
▁vaccination	-10.5191
áo	-10.5193
▁Đường	-10.5196
như	-10.5197
▁distress	-10.52
▁section	-10.5213
▁suốt	-10.5215
▁tendon	-10.5217
te	-10.5228
▁intracranial	-10.5233
▁fatigue	-10.5234
▁mạng	-10.5247
▁state	-10.5248
rd	-10.5252
▁nạo	-10.5254
▁femoral	-10.5257
▁KTC	-10.5262
▁bọt	-10.5263
▁hip	-10.5265
▁involve	-10.5268
▁One	-10.5272
▁bilateral	-10.5277
rays	-10.5282
▁Vị	-10.5283
▁organs	-10.5291
▁hư	-10.5294
▁colorectal	-10.5298
▁testosterone	-10.5315
la	-10.532
▁cough	-10.5321
▁how	-10.5329
▁aimed	-10.5343
▁immuno	-10.5345
▁MS	-10.5351
▁giường	-10.5354
▁nhớ	-10.5362
▁Hiện	-10.5366
▁milk	-10.5368
▁dyspnea	-10.5369
▁rest	-10.5377
▁cư	-10.5379
▁nguyệt	-10.5383
▁immediately	-10.5384
▁nhuộm	-10.539
▁vessels	-10.5397
▁appearance	-10.5402
▁Phầ	-10.5407
▁September	-10.542
▁Prospective	-10.543
stage	-10.5431
▁perforation	-10.5441
▁Kích	-10.5449
▁Tri	-10.5465
▁Average	-10.5467
▁mình	-10.5468
yl	-10.5472
▁endoscopy	-10.5476
▁rehabilitation	-10.5477
▁globulin	-10.5479
off	-10.5489
▁accounts	-10.5495
tr	-10.55
▁Duc	-10.5505
ếu	-10.5515
Giải	-10.553
▁dementia	-10.5535
▁mồ	-10.5539
▁Di	-10.554
▁Serum	-10.5553
đặc	-10.5566
▁operative	-10.5575
▁Vitamin	-10.5582
▁Prognosis	-10.5582
▁quận	-10.5582
▁mã	-10.5583
▁infant	-10.5584
▁phosphate	-10.5585
▁compliance	-10.5591
▁analyzed	-10.5593
▁Purpose	-10.5594
▁material	-10.5599
▁cognitive	-10.5602
▁nút	-10.5603
▁How	-10.5615
▁communication	-10.5618
ated	-10.5621
▁effusion	-10.5623
ness	-10.5628
▁called	-10.5636
▁ĐM	-10.5647
▁energy	-10.5657
▁rắn	-10.5659
▁psoriasis	-10.5669
▁hiển	-10.5669
▁giang	-10.567
▁Data	-10.5671
▁anesthetic	-10.5681
▁develops	-10.5683
▁classified	-10.5688
▁capacity	-10.5691
▁successfully	-10.5691
▁software	-10.5698
▁attention	-10.5707
▁tooth	-10.5713
▁Characteristics	-10.5721
▁sites	-10.5721
▁Total	-10.5735
▁Keyword	-10.574
▁defined	-10.5744
▁measurement	-10.5747
hất	-10.5758
age	-10.5769
▁rét	-10.5774
▁delayed	-10.5774
▁Klebsiella	-10.5774
▁Dan	-10.5775
▁impairment	-10.5779
▁aspiration	-10.5782
▁Th	-10.5785
▁environment	-10.5787
▁particular	-10.5796
ontraindications	-10.5797
▁Hg	-10.5808
▁computed	-10.5815
▁leukemia	-10.5817
▁lẫn	-10.5824
▁movement	-10.5826
▁stages	-10.5827
▁aims	-10.583
ment	-10.5833
▁Case	-10.5834
▁compression	-10.5838
▁potassium	-10.5848
▁containing	-10.5848
có	-10.5859
▁acquired	-10.5859
TT	-10.586
▁diagnose	-10.5865
▁symptomatic	-10.5866
▁tím	-10.5874
▁clear	-10.588
▁proximal	-10.588
▁foods	-10.5887
▁genes	-10.5889
▁regression	-10.5889
▁According	-10.5902
▁class	-10.5915
▁lowest	-10.5916
▁lack	-10.5926
▁củ	-10.5939
dose	-10.594
▁Chăm	-10.5945
▁affects	-10.5953
▁đảo	-10.5953
▁ma	-10.5956
▁Bắc	-10.5963
▁gas	-10.5963
từ	-10.5974
▁helpful	-10.5975
▁intubation	-10.5978
▁practices	-10.5983
▁systolic	-10.5991
▁Thay	-10.6004
▁phạm	-10.6006
▁rather	-10.6015
▁close	-10.6017
▁Co	-10.6019
▁routine	-10.602
▁trai	-10.603
▁vẩy	-10.6033
▁widely	-10.6034
▁nhược	-10.6037
▁impact	-10.6038
▁access	-10.6038
▁paraclinical	-10.6043
▁members	-10.6044
▁like	-10.6046
▁micro	-10.6053
▁extraction	-10.6055
▁muscles	-10.6066
▁stool	-10.6077
▁density	-10.6088
▁quen	-10.609
▁facilities	-10.6093
▁correlated	-10.6094
▁châm	-10.6096
▁su	-10.6099
ent	-10.61
▁Prevalence	-10.6103
▁xoắn	-10.6104
▁Food	-10.6106
▁sp	-10.6112
▁vòm	-10.6114
▁described	-10.613
▁place	-10.6136
▁hốc	-10.6151
▁dietary	-10.6154
▁lạc	-10.6159
▁feeding	-10.6161
pro	-10.6162
▁lồi	-10.6162
▁hypotension	-10.6164
▁phôi	-10.6167
▁systems	-10.6185
▁predict	-10.619
▁occasionally	-10.6197
▁thoracic	-10.6203
▁Re	-10.621
▁thâm	-10.6216
▁insertion	-10.6221
▁administration	-10.6223
▁xoay	-10.6237
▁additional	-10.6239
▁HLA	-10.6254
▁cập	-10.6256
▁bypass	-10.6257
▁eating	-10.6258
▁Chấn	-10.6266
▁commune	-10.6268
▁lai	-10.6281
▁háng	-10.6298
PD	-10.6302
ìm	-10.6319
▁along	-10.6324
▁fibrillation	-10.6328
▁High	-10.6332
▁mitral	-10.6351
▁Causes	-10.6353
▁poisoning	-10.6355
id	-10.6356
▁dậy	-10.6359
am	-10.6366
▁Control	-10.6378
▁vượ	-10.6378
ệ	-10.6379
▁limit	-10.6384
▁hypertensive	-10.6387
▁cứ	-10.6401
▁analgesia	-10.6401
uốc	-10.6404
▁term	-10.6412
▁Pain	-10.6414
▁completely	-10.6418
▁ulcers	-10.6418
▁About	-10.6432
▁improving	-10.6442
▁ngứa	-10.6453
▁kịp	-10.6454
▁four	-10.6457
▁tóc	-10.6458
▁thính	-10.6458
free	-10.6462
▁evaluating	-10.6464
▁residual	-10.6466
▁transmission	-10.647
▁nodules	-10.6474
cm	-10.6485
▁absence	-10.6487
▁osteoporosis	-10.6491
▁trữ	-10.65
▁skills	-10.6502
▁extra	-10.651
▁ái	-10.6513
▁receiving	-10.6516
▁maintain	-10.6527
▁primarily	-10.6538
▁units	-10.6538
▁Age	-10.6539
vi	-10.6539
▁Tiến	-10.6545
▁quần	-10.6546
ước	-10.6551
▁lộ	-10.6558
▁cysts	-10.6558
▁space	-10.6564
▁ESBL	-10.6566
▁thấu	-10.6572
▁herpes	-10.6572
▁hôn	-10.6575
▁occlusion	-10.6582
▁gland	-10.6585
nless	-10.6594
▁risks	-10.6595
▁Pathophysiology	-10.66
▁initially	-10.6607
▁carotid	-10.6612
▁provides	-10.6619
▁molecular	-10.6621
▁incision	-10.6621
▁enough	-10.6622
▁structure	-10.6625
positive	-10.663
▁thí	-10.665
▁corneal	-10.6655
▁polyps	-10.6675
▁treo	-10.6689
▁tạm	-10.6694
▁cán	-10.67
▁penicillin	-10.6708
▁thịt	-10.6718
▁records	-10.6726
ức	-10.6731
▁Ví	-10.6739
▁cúm	-10.6741
▁Type	-10.6742
▁remains	-10.6759
▁viễn	-10.676
▁unknown	-10.6761
▁Phong	-10.6764
▁branch	-10.6767
▁ethanol	-10.6771
▁metastatic	-10.6772
▁chắc	-10.6772
▁contribute	-10.6776
▁adolescents	-10.6782
▁inhibitor	-10.6785
▁khử	-10.6789
▁product	-10.6789
MS	-10.6795
▁sợ	-10.6798
▁uterine	-10.6798
▁EGFR	-10.68
▁ALT	-10.6804
▁Primary	-10.6806
▁Thơ	-10.6815
▁prophylaxis	-10.6824
▁gián	-10.6827
na	-10.683
▁clinicians	-10.6833
▁traumatic	-10.6834
▁Trước	-10.6838
▁Survey	-10.6842
▁appears	-10.6843
ở	-10.6854
▁vancomycin	-10.6855
▁Ngoại	-10.6859
▁Of	-10.6868
▁Information	-10.687
bao	-10.6874
▁intravenous	-10.6875
▁HBsAg	-10.6875
iêm	-10.6881
▁leg	-10.6886
▁dry	-10.6889
▁Disorders	-10.6889
âm	-10.6892
▁CSF	-10.6898
▁gel	-10.6903
không	-10.6906
▁decreases	-10.6911
▁comparison	-10.692
▁sán	-10.6922
▁adrenal	-10.6929
▁autoimmune	-10.6938
▁start	-10.6944
▁participants	-10.6958
▁summary	-10.6968
▁relief	-10.6968
▁IgA	-10.6978
sis	-10.6982
▁optimal	-10.6987
▁bó	-10.699
▁stomach	-10.7001
▁gradually	-10.7002
▁indicate	-10.7006
▁liền	-10.7014
uếch	-10.7016
▁sườn	-10.7033
▁quite	-10.7037
▁đe	-10.7043
▁RNA	-10.7051
▁CLVT	-10.707
if	-10.7074
▁doi	-10.7079
no	-10.708
▁Hb	-10.708
và	-10.7082
▁chéo	-10.7091
like	-10.7097
▁chemical	-10.7114
▁nong	-10.7116
▁danh	-10.7118
▁compounds	-10.7122
▁monitored	-10.7128
with	-10.7147
▁vary	-10.7155
▁efficiency	-10.7158
▁tend	-10.7163
▁down	-10.7167
SS	-10.7177
▁base	-10.7179
▁shunt	-10.7182
▁metabolism	-10.719
▁Severe	-10.7191
▁estimated	-10.7191
▁People	-10.7202
trong	-10.721
▁sectional	-10.7211
▁remove	-10.7222
▁mai	-10.7223
▁Vinh	-10.7232
▁song	-10.7234
▁SPSS	-10.7236
resistant	-10.7238
▁lời	-10.7249
▁thickness	-10.7252
▁radical	-10.7255
BC	-10.7267
hói	-10.728
▁xứng	-10.7294
▁source	-10.7312
▁monitor	-10.7316
▁joints	-10.7317
HD	-10.7324
▁Thị	-10.7334
▁larger	-10.7337
▁aspirin	-10.735
▁gì	-10.735
▁excessive	-10.7359
ri	-10.7361
▁Laparoscopic	-10.7361
▁nóng	-10.7362
▁healing	-10.7364
Phương	-10.7371
▁Evaluating	-10.7373
min	-10.7377
▁paralysis	-10.7379
▁dissection	-10.7384
▁dai	-10.7385
▁sách	-10.7399
▁statistical	-10.7405
▁TSH	-10.7407
q	-10.7409
▁chặn	-10.7419
▁lịch	-10.742
▁giây	-10.7422
▁doạ	-10.7429
▁et	-10.743
▁bão	-10.7433
▁AFP	-10.7434
TS	-10.7436
▁Infection	-10.7439
ive	-10.7442
▁medium	-10.7442
▁little	-10.7443
▁epidural	-10.7443
▁conventional	-10.7443
▁Dịch	-10.7466
▁bong	-10.747
▁prior	-10.7476
▁inter	-10.7486
▁Retrospective	-10.7488
▁bôi	-10.75
▁khiếm	-10.7503
TB	-10.7513
▁structures	-10.7517
▁produce	-10.7518
▁đậu	-10.7523
▁focal	-10.7532
▁spread	-10.7532
▁nghiêng	-10.7535
▁còi	-10.7547
▁ARV	-10.755
▁measure	-10.7553
▁bám	-10.7559
▁Oral	-10.7561
▁Kháng	-10.7574
▁Syndrome	-10.7579
▁media	-10.758
AL	-10.758
▁Physical	-10.7581
▁whole	-10.7581
▁real	-10.7583
▁đòn	-10.7586
▁SD	-10.7589
▁vững	-10.7593
▁diffuse	-10.7594
▁miền	-10.7595
▁Loại	-10.76
▁hoãn	-10.7605
▁chợ	-10.7607
CD	-10.7615
▁curve	-10.7623
▁noted	-10.7627
▁breathing	-10.7633
▁Truyền	-10.7636
▁dl	-10.7636
ab	-10.7642
bệnh	-10.7644
▁cesarean	-10.7646
▁Dong	-10.765
▁components	-10.7659
▁hoa	-10.7661
▁oil	-10.7665
associated	-10.7669
▁Post	-10.7669
▁sensory	-10.7677
▁THE	-10.7682
▁HA	-10.7685
itis	-10.7689
▁Châu	-10.7701
▁malaria	-10.7709
▁modified	-10.772
▁mechanism	-10.7733
▁ureteral	-10.774
▁markers	-10.7743
▁independent	-10.7755
▁consumption	-10.7759
▁dyslipidemia	-10.7759
▁implant	-10.7784
▁immediate	-10.779
oc	-10.7793
▁mostly	-10.7796
▁trả	-10.7799
▁purpose	-10.7805
▁de	-10.7809
▁Diabetes	-10.7814
▁past	-10.7818
▁xếp	-10.7819
▁respond	-10.7827
▁solid	-10.7829
▁formation	-10.7836
▁hemodialysis	-10.7842
▁Describe	-10.7843
▁khách	-10.7848
▁cultures	-10.7848
PR	-10.7853
▁lactate	-10.7854
▁AND	-10.7859
▁suitable	-10.7863
▁Acinetobacter	-10.7866
▁specimens	-10.7867
by	-10.7871
▁ligament	-10.7877
▁minute	-10.7888
▁PSA	-10.789
▁located	-10.7903
▁get	-10.7915
▁hypo	-10.7917
▁objective	-10.7921
▁thoáng	-10.7927
▁đục	-10.7929
▁gánh	-10.7932
▁pathology	-10.7932
▁provided	-10.7933
▁hernia	-10.7949
▁childhood	-10.7951
▁che	-10.7957
▁tia	-10.7969
▁leads	-10.797
▁Tu	-10.7971
▁cortisol	-10.7976
▁circulation	-10.7982
▁absent	-10.7988
▁hepatocellular	-10.8
▁ACE	-10.8007
▁Sốt	-10.8015
▁idiopathic	-10.8022
▁elevation	-10.8058
▁jaundice	-10.8061
▁reference	-10.8072
▁tận	-10.8073
▁tín	-10.8074
▁Care	-10.8074
▁resuscitation	-10.8086
▁nghịch	-10.8088
▁outpatient	-10.8097
▁relation	-10.81
CH	-10.8104
▁consider	-10.8107
ectomy	-10.8107
▁HCMC	-10.8107
▁ethnic	-10.811
▁meet	-10.8117
▁vaccines	-10.8125
▁baumannii	-10.8128
▁concern	-10.8136
▁randomized	-10.8137
ry	-10.8144
▁suggested	-10.8145
▁significance	-10.8148
ton	-10.8148
▁morphology	-10.8149
de	-10.8155
▁Năm	-10.816
▁Ngọc	-10.816
▁SDD	-10.8161
▁mandibular	-10.817
▁resonance	-10.8172
▁tongue	-10.8172
▁ion	-10.8177
▁trải	-10.8182
▁cặp	-10.8186
▁Mố	-10.8187
▁Giai	-10.8192
▁nhú	-10.8195
▁placement	-10.8198
▁bể	-10.8198
▁deficits	-10.8221
ization	-10.8225
▁hair	-10.8235
▁gamma	-10.8243
▁cytokine	-10.8244
▁đen	-10.8245
▁nose	-10.8245
▁metastases	-10.8249
▁nail	-10.825
▁ages	-10.8257
▁receive	-10.8258
▁twice	-10.826
▁Helicobacter	-10.8261
▁portal	-10.8262
▁regimens	-10.8266
▁performance	-10.8279
▁alternative	-10.8282
▁Thường	-10.8286
▁healthcare	-10.8287
ine	-10.8288
▁syndromes	-10.8289
▁deaths	-10.8289
▁dialysis	-10.8291
▁finding	-10.8292
io	-10.8294
▁indications	-10.8295
▁pulse	-10.8299
test	-10.8305
▁complicated	-10.831
▁hemorrhagic	-10.8324
▁fentanyl	-10.8343
▁dành	-10.8348
▁bánh	-10.835
▁Dương	-10.8355
▁presented	-10.8364
▁run	-10.8373
▁counseling	-10.8374
▁protocol	-10.8376
▁TNF	-10.8379
▁maximum	-10.8383
▁tenderness	-10.8386
▁produced	-10.8387
▁Thang	-10.8388
▁khích	-10.8393
▁Pulmonary	-10.8394
▁minimal	-10.8397
▁phận	-10.8399
▁dường	-10.8399
▁inferior	-10.84
▁arrhythmias	-10.8401
▁reduces	-10.8401
▁Anh	-10.8403
▁hang	-10.8407
▁embolism	-10.8413
▁mờ	-10.8421
▁bậc	-10.8424
▁electro	-10.844
▁motion	-10.844
▁ty	-10.8443
▁bày	-10.8444
▁Association	-10.8449
▁cô	-10.8465
▁sờ	-10.8466
▁ROC	-10.8474
▁field	-10.848
▁enzym	-10.848
day	-10.8482
▁difficulty	-10.8493
▁sudden	-10.8499
▁dermatitis	-10.8501
▁rẫy	-10.8501
▁enrolled	-10.8501
▁Sciences	-10.8512
▁sanh	-10.8519
▁Pseudomonas	-10.8527
▁coagulation	-10.8528
▁mucosa	-10.8538
▁Ng	-10.8539
▁khiến	-10.8544
▁neuro	-10.855
▁authors	-10.8554
ta	-10.8554
▁postpartum	-10.8555
▁regular	-10.8563
▁kiếm	-10.8565
▁cutaneous	-10.857
▁indicators	-10.8572
▁táo	-10.8573
▁natural	-10.8576
▁organisms	-10.8577
▁description	-10.8578
▁double	-10.8583
▁cavity	-10.8591
▁heparin	-10.8594
▁color	-10.8596
▁Tây	-10.86
▁acidosis	-10.8605
▁donor	-10.8605
▁girls	-10.8608
▁learning	-10.8611
▁Initial	-10.8614
▁arm	-10.8617
▁lão	-10.8617
▁mùa	-10.8637
▁ferritin	-10.8638
▁Sản	-10.864
▁spontaneous	-10.8644
osis	-10.8646
▁nhức	-10.865
ơ	-10.8666
▁trụ	-10.8669
▁caries	-10.867
▁fraction	-10.868
▁relieve	-10.8681
▁CA	-10.8682
▁trials	-10.8687
▁said	-10.8688
ST	-10.8692
▁just	-10.8693
▁bodies	-10.8695
▁accurate	-10.8706
▁agent	-10.8712
ase	-10.8719
▁preferred	-10.8722
▁nhầy	-10.8723
▁DD	-10.8726
▁aneurysm	-10.8733
▁TG	-10.8738
▁accompanied	-10.8748
▁chày	-10.8749
▁standards	-10.8751
▁hematoma	-10.8757
▁pro	-10.876
▁Glasgow	-10.8762
▁tân	-10.8766
▁strong	-10.8766
▁reached	-10.8777
▁HER	-10.8784
▁lô	-10.8786
▁bắp	-10.8787
▁except	-10.879
▁induced	-10.879
ting	-10.8791
▁BP	-10.8792
ance	-10.8795
▁episodes	-10.8801
▁quantitative	-10.8803
▁slow	-10.8803
▁met	-10.8805
▁ẩm	-10.8814
▁huấn	-10.8814
chiếm	-10.8816
▁Vai	-10.8817
▁bụi	-10.8827
▁influenza	-10.883
▁superior	-10.883
▁Clinic	-10.884
▁closure	-10.8842
rs	-10.8845
II	-10.8848
▁presentation	-10.8858
▁clinic	-10.8865
▁mEq	-10.8867
▁attitudes	-10.8868
▁angiotensin	-10.8876
▁interval	-10.8878
▁etiology	-10.888
▁making	-10.888
▁chồng	-10.8882
ci	-10.8886
▁mao	-10.8888
usually	-10.8897
▁tên	-10.89
▁balloon	-10.8902
▁devices	-10.8906
▁excision	-10.892
▁magnetic	-10.8922
▁transplant	-10.8923
▁toxic	-10.8929
▁acne	-10.8934
▁saline	-10.8935
TH	-10.8935
▁diastolic	-10.8935
▁possibly	-10.8936
tion	-10.8945
▁dàng	-10.8947
▁nách	-10.8948
▁check	-10.8952
▁Tai	-10.8953
▁chạy	-10.8961
▁transmitted	-10.8963
▁Hoá	-10.8963
▁inhibit	-10.8966
▁soon	-10.8966
▁pathogens	-10.8968
▁ĐMV	-10.897
▁fetus	-10.8973
▁disability	-10.8974
▁benefits	-10.8977
▁stimulation	-10.8987
▁chain	-10.8992
▁placed	-10.9013
ork	-10.9014
▁abdomen	-10.9014
▁khung	-10.9019
▁live	-10.9021
▁Sa	-10.9023
ox	-10.9033
▁Học	-10.9035
▁painful	-10.9036
▁carbon	-10.9042
▁thiệu	-10.9046
▁chóp	-10.9047
▁predicting	-10.9049
▁operating	-10.9052
▁Male	-10.9054
▁patterns	-10.9054
▁device	-10.9056
▁bóp	-10.9056
▁bón	-10.906
▁Sp	-10.9063
▁premature	-10.9067
▁chắn	-10.9069
▁CS	-10.9077
▁Drugs	-10.9081
▁anatomical	-10.9082
▁plant	-10.9089
▁breath	-10.909
▁Science	-10.9097
▁Anti	-10.9099
▁distinguish	-10.9104
from	-10.9115
▁whose	-10.9117
▁uncommon	-10.9121
▁creatinin	-10.9121
▁hypothyroidism	-10.9136
▁terms	-10.9137
▁Thi	-10.914
TM	-10.915
▁assay	-10.9153
▁Nên	-10.9153
ad	-10.9158
▁apply	-10.9161
▁give	-10.9162
▁im	-10.9163
▁percent	-10.9164
▁pituitary	-10.9167
ut	-10.9182
all	-10.92
▁Giới	-10.9206
▁know	-10.9208
▁IgM	-10.9212
▁way	-10.9213
▁mù	-10.922
▁đói	-10.9221
▁occupational	-10.9226
▁atrophy	-10.9233
▁typ	-10.9234
▁regurgitation	-10.9247
espite	-10.9257
▁morphine	-10.9258
▁kịch	-10.9262
▁account	-10.9266
▁established	-10.9284
▁hemodynamic	-10.929
▁exposed	-10.9291
AG	-10.9293
▁adenocarcinoma	-10.9297
CI	-10.9298
▁mcL	-10.9302
▁reflux	-10.9302
▁influence	-10.9303
▁tranh	-10.9306
▁nén	-10.9307
ist	-10.9307
▁trán	-10.9308
▁therapies	-10.9316
▁AST	-10.9319
▁Là	-10.9324
ear	-10.9326
▁Renal	-10.933
grade	-10.9334
▁Ca	-10.934
uy	-10.9341
▁AKI	-10.9343
▁khúc	-10.9345
▁ensure	-10.9354
▁rash	-10.9376
▁Ph	-10.9382
▁materials	-10.9382
▁Liver	-10.9386
▁fungal	-10.9391
▁advantages	-10.9394
▁maintenance	-10.94
▁Hiệp	-10.9401
▁AUC	-10.9409
SD	-10.9413
▁strength	-10.9415
specific	-10.9423
▁lối	-10.9436
▁extent	-10.9442
▁Đo	-10.9445
▁indication	-10.9445
omen	-10.9446
care	-10.945
▁SGA	-10.9457
▁diệt	-10.946
ron	-10.947
ER	-10.9471
▁History	-10.9471
▁burden	-10.9471
▁tam	-10.9471
▁Hạ	-10.9473
volving	-10.9476
ã	-10.9477
▁thesis	-10.9481
▁hoàng	-10.9486
▁enzymes	-10.9486
mol	-10.9487
▁thought	-10.949
▁transfer	-10.9495
▁aneurysms	-10.9513
▁Assess	-10.9516
▁formula	-10.9518
▁exon	-10.9523
▁cold	-10.9524
▁Hữu	-10.9527
▁thách	-10.9529
▁ill	-10.9529
▁great	-10.9538
▁outpatients	-10.9544
▁fixation	-10.9547
ma	-10.9549
▁five	-10.9553
per	-10.9554
▁repeated	-10.9556
▁ấu	-10.9564
▁Tư	-10.9566
thrombocytopenia	-10.957
▁bed	-10.9586
▁determination	-10.9586
▁absorption	-10.959
▁trống	-10.959
▁logistic	-10.9599
▁NMCT	-10.9604
less	-10.9605
mer	-10.9611
▁Tập	-10.9613
▁arrest	-10.9613
▁kiềm	-10.9617
ởi	-10.9621
which	-10.9637
▁room	-10.9639
▁transient	-10.9639
▁lungs	-10.964
▁PTH	-10.9643
▁dạy	-10.9651
ary	-10.9655
▁Dur	-10.9656
▁appendicitis	-10.9656
▁thao	-10.9656
▁probably	-10.9658
▁Con	-10.9659
▁veins	-10.9663
▁remain	-10.9664
▁CH	-10.9664
▁rule	-10.9666
▁hypoglycemia	-10.9671
▁CKD	-10.9674
▁closed	-10.9681
▁triglyceride	-10.9683
▁staging	-10.9687
▁Determine	-10.9694
TP	-10.9699
▁Pre	-10.9702
spinal	-10.9706
▁hố	-10.9708
▁permanent	-10.9709
▁Hodgkin	-10.9722
▁centers	-10.9728
▁progress	-10.9731
▁set	-10.9734
▁đàn	-10.9734
▁Đông	-10.9736
▁begin	-10.9736
ên	-10.9737
▁died	-10.9738
▁hyponatremia	-10.9759
▁analyze	-10.9769
▁invasion	-10.9772
con	-10.9773
▁Le	-10.9774
ard	-10.9782
▁preventing	-10.9784
▁achieve	-10.9784
▁lưới	-10.9788
oid	-10.9793
▁trà	-10.9799
▁clearance	-10.9802
▁bi	-10.9806
assisted	-10.9806
ướng	-10.981
▁return	-10.9815
▁identification	-10.9816
▁next	-10.9816
▁reproductive	-10.9816
▁đọng	-10.9816
▁bức	-10.9821
▁communes	-10.9824
month	-10.9828
▁Lượ	-10.983
▁acuity	-10.9831
▁Cao	-10.9837
▁Descriptive	-10.9845
▁requiring	-10.985
▁methotrexate	-10.985
▁IgE	-10.986
▁CDC	-10.9867
▁Test	-10.9869
▁urethral	-10.987
▁epinephrine	-10.9875
▁giàu	-10.9876
▁since	-10.989
IV	-10.9901
▁breastfeeding	-10.9905
▁disc	-10.9909
▁special	-10.9915
▁unilateral	-10.9919
▁slightly	-10.9921
▁bupivacaine	-10.9923
▁La	-10.9926
▁cycle	-10.993
▁Treat	-10.9931
▁Child	-10.9933
▁fully	-10.9935
▁gain	-10.9939
▁gestation	-10.9946
▁septal	-10.9947
▁easily	-10.9949
▁literature	-10.9949
▁service	-10.9952
▁effectively	-10.9957
bi	-10.9958
▁critical	-10.9958
▁nghệ	-10.9959
▁provinces	-10.9962
▁delay	-10.9963
▁ablation	-10.9964
▁Chố	-10.9966
▁Indications	-10.9967
▁nắng	-10.9968
▁nephrotic	-10.9979
▁becomes	-10.9979
▁previously	-10.9988
▁kinase	-10.9988
▁localized	-10.9991
▁Tần	-10.9992
▁mediastinal	-10.9993
▁HP	-10.9996
▁Obstetrics	-10.9998
ex	-11.0008
▁apnea	-11.0008
▁mid	-11.0013
ver	-11.0015
iệt	-11.0015
▁Bài	-11.0016
▁hoành	-11.0018
▁cương	-11.0021
▁mòn	-11.0025
▁châu	-11.0026
▁Đề	-11.0026
▁kidneys	-11.0029
▁able	-11.0033
▁nerves	-11.0035
ái	-11.0036
▁diagnosing	-11.0038
▁baseline	-11.0039
▁fasting	-11.0042
▁Thể	-11.0053
ag	-11.0055
▁khe	-11.0055
hoặc	-11.0059
học	-11.0061
▁popular	-11.0068
▁rhinitis	-11.0068
▁District	-11.0068
▁Two	-11.0068
rin	-11.0078
▁pharmacy	-11.0083
▁demonstrated	-11.0084
ược	-11.0085
▁supply	-11.0093
hử	-11.0094
▁nhầm	-11.0101
▁Low	-11.0112
▁cranial	-11.0112
▁ngôn	-11.0115
▁sàn	-11.0115
▁continued	-11.0116
▁sensation	-11.0117
▁resources	-11.0123
▁national	-11.0129
▁relative	-11.0138
hức	-11.0142
▁anatomy	-11.0144
▁trắc	-11.0144
▁nonspecific	-11.0147
▁hands	-11.0149
▁Kinh	-11.0163
▁Testing	-11.0164
▁ex	-11.0171
▁ly	-11.0174
▁future	-11.0174
▁endotracheal	-11.0174
▁minor	-11.0177
▁Media	-11.0177
▁leaves	-11.0182
▁ray	-11.0185
▁tool	-11.0187
▁marker	-11.0187
▁medicinal	-11.0189
▁PR	-11.0195
▁United	-11.02
▁kênh	-11.0201
▁hypertrophy	-11.0204
▁retinal	-11.0207
▁correction	-11.0208
▁guidance	-11.0216
▁thalassemia	-11.0219
▁ASA	-11.022
▁perform	-11.0225
▁ngồi	-11.0235
▁regions	-11.0238
ell	-11.0239
▁potentially	-11.0242
▁toward	-11.0242
cl	-11.0245
▁measurements	-11.0245
PT	-11.0245
▁flaps	-11.0247
▁mask	-11.0249
▁sputum	-11.025
KTC	-11.0251
▁preparation	-11.0255
ty	-11.0257
▁off	-11.0261
▁tươi	-11.0266
▁peritoneal	-11.0273
cy	-11.0276
▁pneumothorax	-11.028
▁might	-11.0283
▁behaviors	-11.0284
▁genital	-11.0284
iếp	-11.0288
ted	-11.0292
▁squamous	-11.0295
▁November	-11.0296
▁antimicrobial	-11.0301
▁boys	-11.0316
▁caregivers	-11.0319
CC	-11.0323
▁liquid	-11.0332
▁distance	-11.0332
▁investigated	-11.0333
▁Thong	-11.0334
▁doctors	-11.0346
▁finger	-11.0347
▁Phu	-11.0356
uring	-11.0356
▁ectopic	-11.0358
▁osteoarthritis	-11.0358
▁maxillary	-11.0365
▁retention	-11.0373
▁anomalies	-11.0373
▁slowly	-11.0376
▁Mất	-11.0378
▁antioxidant	-11.0378
▁Hàm	-11.038
▁cystic	-11.0381
▁sequencing	-11.0387
ần	-11.0397
▁insurance	-11.0404
▁unclear	-11.0404
▁heavy	-11.0404
▁worldwide	-11.0404
▁regarding	-11.0405
▁mucosal	-11.0409
▁output	-11.0414
▁segment	-11.0418
▁supportive	-11.0418
▁perfusion	-11.0419
▁incontinence	-11.042
▁analgesic	-11.0423
oma	-11.0423
▁đám	-11.0425
▁superficial	-11.0435
one	-11.0435
▁Respiratory	-11.0435
hảy	-11.0438
▁younger	-11.044
▁optic	-11.0441
▁zinc	-11.0451
▁Thomas	-11.0451
▁donors	-11.0451
▁started	-11.0457
▁Na	-11.0467
▁continue	-11.0469
▁mùi	-11.0473
▁IM	-11.0473
▁avoided	-11.0476
▁mixed	-11.0477
PS	-11.0479
▁abuse	-11.048
▁bé	-11.049
▁strain	-11.0493
▁thổi	-11.0499
▁trigger	-11.0501
▁Mar	-11.0505
▁sừng	-11.0515
▁managed	-11.0515
▁Both	-11.0518
▁fatal	-11.052
▁recommendations	-11.0524
end	-11.0527
▁fluids	-11.0529
▁whereas	-11.053
▁begins	-11.0542
▁hông	-11.0545
▁basis	-11.0549
▁thôn	-11.055
▁abortion	-11.055
▁(-)	-11.0552
▁già	-11.0554
▁DVT	-11.0558
▁applying	-11.0567
▁pathological	-11.0567
▁Lung	-11.0569
▁Ki	-11.0569
eptic	-11.0572
▁detecting	-11.0573
▁threshold	-11.0576
▁video	-11.0576
▁FEV	-11.0578
▁inpatients	-11.0585
▁lip	-11.0586
▁toxin	-11.0588
▁easy	-11.0592
▁Eye	-11.0594
▁goal	-11.0601
▁TM	-11.0604
▁bữa	-11.0609
▁proper	-11.0622
▁plan	-11.0626
uan	-11.0637
▁trội	-11.064
▁satisfied	-11.064
▁revealed	-11.0642
▁PCT	-11.0643
▁Pro	-11.0644
▁rheumatoid	-11.0647
BMI	-11.0653
▁Adverse	-11.0656
▁Liên	-11.0657
▁dis	-11.0663
▁fish	-11.0664
li	-11.0668
rút	-11.0669
▁Also	-11.0672
▁prescribed	-11.0672
▁manifest	-11.0673
▁puncture	-11.0675
trao	-11.0676
▁Postoperative	-11.0677
▁schools	-11.0677
▁currently	-11.0678
▁Phả	-11.0685
▁VIDEO	-11.0688
▁economic	-11.069
▁Nhat	-11.0693
▁equipment	-11.0694
▁see	-11.0697
uảng	-11.0708
nhóm	-11.0711
▁mẫn	-11.072
▁solutions	-11.072
▁what	-11.072
▁Dị	-11.0725
▁secretion	-11.0726
▁Escherichia	-11.0736
▁Dự	-11.0736
▁probe	-11.0738
▁contain	-11.0747
▁binh	-11.0757
ies	-11.0767
▁HBeAg	-11.077
▁reasons	-11.0776
▁TT	-11.078
▁designed	-11.0784
particularly	-11.0788
▁calculated	-11.0801
▁component	-11.0802
ative	-11.0807
ot	-11.0808
tức	-11.0832
small	-11.084
man	-11.0847
▁đất	-11.0848
▁woman	-11.0849
da	-11.0853
▁Nhất	-11.0855
▁physician	-11.0859
▁environmental	-11.0862
iv	-11.0862
▁neutropenia	-11.0865
FABP	-11.0865
▁recommend	-11.0867
▁Protein	-11.0881
▁biển	-11.0882
▁Fever	-11.0882
▁carcinôm	-11.0883
▁cephalosporin	-11.0886
▁rạch	-11.0891
▁Rate	-11.0898
▁burns	-11.0903
▁feasible	-11.0914
▁varies	-11.0914
▁huống	-11.0915
IC	-11.0918
type	-11.0919
▁indicates	-11.092
▁HPLC	-11.092
▁PaO	-11.0922
ối	-11.0929
▁tròn	-11.0939
▁protection	-11.0942
▁SpO	-11.0959
uất	-11.0964
▁extremity	-11.0971
usiness	-11.0976
▁prolapse	-11.098
▁ưa	-11.0981
▁áo	-11.0981
▁CHT	-11.0993
▁Van	-11.0998
▁malformations	-11.0998
▁LV	-11.0999
▁million	-11.1003
▁ELISA	-11.1009
▁gái	-11.1014
viêm	-11.1015
▁Skin	-11.1031
▁MR	-11.1042
▁proteins	-11.105
▁differentiated	-11.1056
▁nhiệm	-11.1062
▁catheterization	-11.1072
▁para	-11.1079
▁equivalent	-11.1081
▁việt	-11.1082
▁guide	-11.1093
▁trăm	-11.1095
▁buổi	-11.1095
▁prednisone	-11.1096
▁PD	-11.11
▁wide	-11.1108
▁MI	-11.111
▁tuyệt	-11.1113
▁Bằng	-11.1113
▁Răng	-11.1129
▁indices	-11.1129
▁Scale	-11.1129
▁comparing	-11.1145
▁contaminated	-11.1158
▁Effects	-11.1159
▁peak	-11.1161
▁memory	-11.1162
▁inguinal	-11.1167
▁yet	-11.1173
▁throat	-11.1174
▁bọng	-11.1174
▁NK	-11.1177
▁lidocaine	-11.118
▁fall	-11.1181
tin	-11.1186
ling	-11.1187
▁Streptococcus	-11.1191
▁hyperplasia	-11.1196
▁carbapenem	-11.1197
▁dãn	-11.1199
▁đeo	-11.1206
▁trocar	-11.1206
▁bắc	-11.1213
▁sperm	-11.1213
▁Chest	-11.1213
▁closely	-11.1217
▁tends	-11.1218
▁play	-11.1229
▁buộc	-11.123
▁means	-11.1232
▁thuyết	-11.1232
▁reports	-11.1242
▁requirements	-11.1243
▁serotonin	-11.1246
▁individual	-11.1251
vo	-11.1266
một	-11.1266
▁protective	-11.1267
ổ	-11.1268
▁thiên	-11.1268
▁waste	-11.1276
▁fatty	-11.128
▁preventive	-11.1286
▁sterile	-11.1297
▁allow	-11.1297
onset	-11.13
▁drinking	-11.1302
▁programs	-11.1303
AC	-11.1305
▁methyl	-11.1305
▁anal	-11.1308
▁nhắt	-11.1314
▁endocrine	-11.1315
▁Ban	-11.1315
▁đứt	-11.132
▁substances	-11.1323
▁collection	-11.1339
ại	-11.1341
▁iodine	-11.1341
▁HF	-11.1347
▁khẩn	-11.1348
▁vọng	-11.1348
▁basic	-11.1349
▁suture	-11.1356
àn	-11.1356
▁assessing	-11.1363
▁Springer	-11.1365
▁Chương	-11.1366
▁TC	-11.1368
IL	-11.1372
▁gastro	-11.1372
▁hàn	-11.1374
az	-11.1377
▁step	-11.1378
▁balance	-11.138
▁w	-11.1382
▁heat	-11.1384
▁consequences	-11.139
▁bóc	-11.1396
▁sufficient	-11.1397
▁excess	-11.1399
▁induction	-11.1399
▁simplex	-11.1401
▁vessel	-11.1405
HR	-11.1411
▁ankle	-11.1413
▁intraoperative	-11.1413
▁extensive	-11.1414
▁glaucoma	-11.1415
▁gout	-11.1418
▁Tính	-11.1419
▁VI	-11.1421
▁pedicle	-11.1421
▁laryngeal	-11.1424
ạt	-11.143
ized	-11.1433
▁nguyện	-11.1434
▁Rarely	-11.1434
▁Mặt	-11.1434
▁intensity	-11.1436
▁substance	-11.1445
▁experimental	-11.145
▁polymerase	-11.145
▁aorta	-11.1451
▁Duong	-11.1452
CSF	-11.1458
hour	-11.146
▁origin	-11.1467
▁atherosclerosis	-11.1468
▁ấm	-11.1468
▁follows	-11.1469
CL	-11.1483
▁personal	-11.1488
▁eo	-11.1491
j	-11.1493
▁night	-11.1494
▁thấm	-11.1504
▁thoả	-11.1516
▁Endoscopic	-11.152
▁peri	-11.1526
▁propofol	-11.1528
▁Good	-11.1536
▁rụng	-11.1539
▁remission	-11.1546
▁dominant	-11.1552
▁NB	-11.1555
▁cohort	-11.1555
▁NGHI	-11.1556
▁dilation	-11.1557
▁establish	-11.1568
▁Thận	-11.1573
▁extremities	-11.1573
▁generalized	-11.1574
▁tolerance	-11.1574
▁kem	-11.1582
▁angina	-11.159
▁Hơn	-11.1591
▁Bac	-11.1602
▁Hiếm	-11.1608
▁giving	-11.1608
▁susceptibility	-11.1608
▁reason	-11.1611
▁bế	-11.1613
▁tàn	-11.1618
▁Như	-11.1625
▁rural	-11.1627
▁vertebral	-11.1629
red	-11.1629
▁sclerosis	-11.1631
háng	-11.1634
độ	-11.1635
ournal	-11.1643
▁States	-11.1651
▁departments	-11.1652
▁Material	-11.1652
▁Tâm	-11.1665
AUC	-11.1669
▁figure	-11.1669
▁TPHCM	-11.1671
ide	-11.1672
▁vét	-11.1673
▁khoáng	-11.1677
▁nhật	-11.1678
▁vasopressin	-11.1678
▁sources	-11.1683
▁focus	-11.1684
▁PCI	-11.1687
▁Phú	-11.169
▁chì	-11.1693
▁therefore	-11.1696
▁branches	-11.1698
ence	-11.17
▁contamination	-11.1701
▁Diseases	-11.1703
▁subcutaneous	-11.1707
▁minimize	-11.1711
▁alveolar	-11.1715
▁hard	-11.1723
FDG	-11.1724
▁excellent	-11.1731
▁prenatal	-11.1746
▁families	-11.1749
▁determini	-11.1749
▁Emergency	-11.1749
▁noãn	-11.1749
▁viết	-11.175
▁SOFA	-11.1763
▁IC	-11.1764
▁adjacent	-11.1766
▁suicide	-11.1766
▁Hypertension	-11.1766
▁miếng	-11.1767
▁Only	-11.1772
▁depth	-11.1777
lin	-11.1779
▁six	-11.1788
▁vôi	-11.1788
CE	-11.1791
▁ventricle	-11.1794
▁reviewed	-11.1796
▁Du	-11.1796
▁kì	-11.1798
▁models	-11.1799
▁exclude	-11.1801
▁stunting	-11.1802
▁biochemical	-11.1802
acting	-11.1804
▁Dec	-11.1805
▁trơn	-11.1806
▁neuropathy	-11.1811
uch	-11.1811
▁option	-11.1813
đ	-11.1813
▁bật	-11.182
hospital	-11.182
▁ngại	-11.1821
▁shorter	-11.1825
▁nano	-11.1831
▁placenta	-11.1837
▁beginning	-11.1838
▁dosage	-11.1841
▁recognized	-11.1844
▁Bên	-11.1846
▁wounds	-11.1847
▁functions	-11.1848
▁medial	-11.1853
▁IU	-11.1854
▁hyperthyroidism	-11.1858
▁CK	-11.1863
▁intermittent	-11.1871
▁PTNS	-11.1872
▁obese	-11.1872
▁Management	-11.1874
▁mono	-11.1884
▁visible	-11.1885
▁entire	-11.1889
▁scientific	-11.1891
▁Ghép	-11.1892
▁neurological	-11.1895
▁cồn	-11.1897
▁CMV	-11.1902
▁biological	-11.1908
▁Mẫu	-11.191
▁linear	-11.1912
uá	-11.1912
▁laparoscopy	-11.1917
▁poorly	-11.1921
▁stopped	-11.1928
▁Screening	-11.1928
om	-11.1932
▁awareness	-11.1946
▁phiên	-11.1947
▁strongly	-11.1949
▁variables	-11.1953
▁constipation	-11.1955
▁newborn	-11.1956
▁physicians	-11.1957
emia	-11.1958
▁ingestion	-11.1964
▁anastomosis	-11.1965
▁nhờ	-11.1969
▁spontaneously	-11.1986
▁clearly	-11.1987
ish	-11.1994
vascular	-11.1998
▁longitudinal	-11.2
▁event	-11.2
▁false	-11.2007
▁questions	-11.2013
▁tp	-11.2015
ạ	-11.2019
▁Neonatal	-11.2019
▁dừng	-11.202
▁erythema	-11.2024
▁Lâm	-11.2026
so	-11.2028
ok	-11.2028
▁ones	-11.2031
▁bướm	-11.2037
▁gallbladder	-11.2037
▁đờm	-11.2038
▁Overall	-11.204
▁San	-11.2049
everal	-11.2052
▁Before	-11.2055
▁apparent	-11.2055
▁cardiomyopathy	-11.2055
▁hắc	-11.2055
▁pregnancies	-11.2055
▁surgeon	-11.2066
lactamase	-11.2066
▁ĐI	-11.2067
▁regional	-11.2071
▁hầm	-11.2077
▁minimally	-11.2077
hi	-11.2079
▁receptors	-11.208
▁tip	-11.2085
▁Society	-11.2087
▁peritonitis	-11.2092
▁strategy	-11.2092
▁February	-11.2092
▁Hoạt	-11.2093
▁bông	-11.2094
ata	-11.211
▁Alzheimer	-11.211
ru	-11.2111
▁ejection	-11.2111
▁country	-11.2111
▁đới	-11.2111
▁structural	-11.2114
▁urea	-11.2115
▁orbital	-11.2121
▁anatomic	-11.2127
▁endocarditis	-11.2129
▁sugar	-11.2129
▁ngơi	-11.2129
▁personality	-11.213
▁parts	-11.2134
▁processing	-11.2136
▁thơ	-11.2147
▁prepared	-11.2147
▁Pregnancy	-11.2147
CA	-11.2147
▁khuyên	-11.2155
▁whom	-11.2156
▁Nghe	-11.2158
▁Đà	-11.2158
▁ocular	-11.2159
▁trimester	-11.216
▁NIHSS	-11.2162
▁AP	-11.2163
▁differentiate	-11.2163
uality	-11.2165
▁epilepsy	-11.2166
▁Bone	-11.2166
▁acupuncture	-11.2168
khoảng	-11.2168
▁RV	-11.2178
▁plexus	-11.2184
▁nephropathy	-11.2184
▁Cardiac	-11.2185
aminotransferase	-11.2185
▁VIII	-11.2188
▁seconds	-11.2191
ạm	-11.2191
ữ	-11.2198
▁leakage	-11.2203
▁amounts	-11.2211
▁variable	-11.2217
ology	-11.2219
▁hyperglycemia	-11.2222
▁mechanisms	-11.2225
tri	-11.2226
▁decreasing	-11.2233
▁histopathology	-11.2237
▁Hepatitis	-11.224
▁cẩn	-11.224
▁Usually	-11.224
▁lost	-11.2245
▁Over	-11.2256
uyên	-11.2256
▁lặn	-11.2256
▁sắp	-11.2259
▁Congenital	-11.2259
▁quickly	-11.226
hCG	-11.2267
▁radial	-11.2277
▁nephrectomy	-11.2278
▁đổ	-11.228
▁salt	-11.2283
ism	-11.2287
é	-11.2288
▁Pediatric	-11.2289
▁consciousness	-11.2296
▁esophagus	-11.2296
▁Index	-11.2298
▁individuals	-11.2306
▁increasingly	-11.2307
lactam	-11.2308
articular	-11.2311
▁Gynecology	-11.2315
▁tấn	-11.2315
▁EF	-11.2317
▁wave	-11.2325
▁selection	-11.2334
▁supplementation	-11.2334
▁bia	-11.2338
NC	-11.2343
với	-11.2347
▁GH	-11.2348
hỉnh	-11.2362
▁RT	-11.2366
▁lobe	-11.2369
▁earlier	-11.2372
▁tụt	-11.2374
▁Rh	-11.2377
▁j	-11.2379
▁Khố	-11.2384
oL	-11.2385
▁nosocomial	-11.2391
▁action	-11.2392
▁lu	-11.2394
▁Ngày	-11.2411
▁added	-11.2411
CO	-11.2415
▁examine	-11.2416
▁TCD	-11.2419
▁global	-11.2425
▁subsequent	-11.2426
▁dysplasia	-11.2429
▁lạ	-11.2447
▁androgen	-11.2447
▁Phù	-11.2448
▁uterus	-11.2448
BP	-11.2452
NT	-11.2455
▁capsule	-11.246
▁Họ	-11.246
parathyroidism	-11.2467
▁improves	-11.247
▁synthesis	-11.2473
▁extracts	-11.2476
▁NC	-11.2478
eff	-11.2481
▁accidents	-11.2488
▁MT	-11.249
▁valuable	-11.2496
▁Nh	-11.2498
▁corticoid	-11.2501
▁Hoà	-11.2503
▁chán	-11.2504
ĐM	-11.2506
▁experienced	-11.2512
▁responses	-11.2515
▁changed	-11.2516
▁plaque	-11.2522
▁intermediate	-11.2524
▁immunity	-11.2524
▁periodontal	-11.2525
▁dội	-11.2525
▁Systemic	-11.2526
ren	-11.2526
▁extended	-11.2527
▁acetate	-11.2529
▁Infections	-11.2548
▁skull	-11.2563
▁glomerular	-11.2563
▁cellular	-11.2566
▁glands	-11.2571
▁screen	-11.2578
▁Bướu	-11.2582
▁Un	-11.2583
▁abscesses	-11.2585
▁poly	-11.2586
▁Trans	-11.2587
▁TK	-11.259
▁DM	-11.259
▁go	-11.2592
▁investigation	-11.2594
▁viruses	-11.2594
▁extracted	-11.2596
▁tứ	-11.2598
▁discomfort	-11.2601
mi	-11.2604
▁overload	-11.2605
▁tear	-11.2609
▁normally	-11.2614
▁MIC	-11.2616
▁nm	-11.262
▁Imaging	-11.2621
▁Động	-11.2622
▁metformin	-11.2626
▁gà	-11.2632
▁exacerbation	-11.2633
▁sedation	-11.264
▁waist	-11.264
▁histological	-11.2643
▁epidemiological	-11.2644
ES	-11.2646
▁Chiều	-11.2648
▁mác	-11.265
▁basal	-11.2655
▁radiotherapy	-11.2661
▁bad	-11.2663
OL	-11.2671
▁setting	-11.2673
▁disturbances	-11.2676
▁circumference	-11.2679
▁Chứng	-11.2679
RT	-11.268
cal	-11.268
▁Tế	-11.268
huynh	-11.2681
▁acids	-11.2706
▁FSH	-11.2706
▁cholecystectomy	-11.2709
▁pump	-11.2714
▁reliable	-11.2718
▁nếp	-11.2718
▁issues	-11.2721
▁border	-11.2725
▁producing	-11.2726
▁her	-11.2727
▁NSAID	-11.2731
▁trễ	-11.2732
▁cụt	-11.2738
▁Investigation	-11.2738
▁contraindicated	-11.2738
▁enhance	-11.2744
plays	-11.2746
▁LH	-11.2747
▁dán	-11.2748
▁manifestation	-11.2751
▁Normal	-11.2754
▁atypical	-11.2754
▁Oncology	-11.2757
▁variety	-11.2757
▁allergy	-11.2757
▁remaining	-11.2765
▁elbow	-11.277
▁decision	-11.2771
▁burn	-11.2772
▁exchange	-11.2772
▁đay	-11.2773
▁colistin	-11.2777
▁probability	-11.2777
▁bẫy	-11.2797
▁withdrawal	-11.2798
▁interstitial	-11.2798
CDC	-11.2799
▁Centers	-11.2803
▁impair	-11.2812
▁lí	-11.2813
▁cử	-11.2815
▁cuff	-11.2816
orld	-11.2816
▁far	-11.2817
▁difficulties	-11.2817
▁plate	-11.2823
▁likelihood	-11.2836
▁measuring	-11.2836
▁Điện	-11.2837
▁VII	-11.284
▁CEA	-11.2843
▁Multiple	-11.2848
▁Corticosteroid	-11.285
▁consistent	-11.2854
▁Thủ	-11.2856
▁sampling	-11.2856
▁together	-11.2856
▁ảo	-11.286
▁relapse	-11.2867
▁vít	-11.287
▁stop	-11.2874
▁width	-11.2876
▁Apr	-11.2876
▁doxycycline	-11.288
nt	-11.288
▁ring	-11.2881
ựa	-11.2885
▁duodenal	-11.2888
▁Based	-11.2894
▁load	-11.2897
▁Aims	-11.2898
▁cycles	-11.2911
▁themselves	-11.2916
▁estradiol	-11.2918
▁occurring	-11.2924
▁dexamethasone	-11.2927
▁identifying	-11.2928
▁supplements	-11.2935
▁thoảng	-11.2939
▁folate	-11.2942
▁chromosome	-11.2945
▁coma	-11.2951
▁directed	-11.2966
▁chấm	-11.2976
ill	-11.298
▁axillary	-11.2987
▁falls	-11.2987
ob	-11.2987
▁encephalitis	-11.2992
▁Classification	-11.2996
▁thoracoscopic	-11.2999
ba	-11.3
▁Diagnostic	-11.3004
▁across	-11.3007
▁Abdominal	-11.301
▁machine	-11.301
▁puberty	-11.3016
▁seizure	-11.3027
▁shape	-11.3029
esophageal	-11.3032
▁bones	-11.3036
▁palsy	-11.3036
▁lot	-11.3044
▁acetaminophen	-11.3046
▁narrow	-11.305
▁Thalassemia	-11.3051
▁nạ	-11.3052
▁stability	-11.3056
▁strategies	-11.3056
▁extremely	-11.3058
▁thin	-11.3063
▁But	-11.3064
▁equal	-11.308
▁resolve	-11.3089
▁deficiencies	-11.309
▁Human	-11.3097
▁feet	-11.3097
▁Chế	-11.31
▁Nhan	-11.3104
▁fast	-11.3105
▁Beta	-11.3105
▁bốn	-11.3114
▁costs	-11.3116
▁methadone	-11.3117
▁view	-11.3119
▁Dùng	-11.3123
▁team	-11.3124
▁đồi	-11.3127
▁wrist	-11.3132
cho	-11.3133
▁inadequate	-11.3135
▁California	-11.3138
▁herniation	-11.3138
▁OS	-11.314
▁cam	-11.3141
PL	-11.3149
treatment	-11.3151
▁ói	-11.3152
▁proteinuria	-11.3159
▁refractory	-11.316
▁fresh	-11.3166
▁controls	-11.3178
▁immunocompromis	-11.3178
▁Anatomy	-11.3179
▁pandemic	-11.3179
▁huế	-11.3179
ho	-11.3188
▁thật	-11.3199
▁Nghệ	-11.3199
▁liễu	-11.3199
▁lường	-11.3201
▁Vol	-11.3202
ities	-11.3204
ses	-11.3204
▁And	-11.3207
▁My	-11.3209
▁lithotripsy	-11.322
ử	-11.322
▁contents	-11.3222
▁infertility	-11.324
ca	-11.3251
▁participate	-11.3259
▁Crohn	-11.3261
lu	-11.3268
▁hue	-11.3273
▁Time	-11.3274
▁doctor	-11.3276
ian	-11.3282
PA	-11.3299
▁Cardiovascular	-11.3302
▁approximately	-11.3302
▁Thần	-11.3303
▁bớt	-11.3303
▁masses	-11.3309
▁emotional	-11.331
ơng	-11.3311
▁ông	-11.3317
▁feel	-11.3318
▁manage	-11.3321
▁decompression	-11.3323
▁unexplained	-11.3324
▁staining	-11.3327
▁routinely	-11.3328
score	-11.3331
▁ARDS	-11.3332
▁doanh	-11.3332
mediated	-11.3335
▁amino	-11.3337
▁profile	-11.3339
▁tracheal	-11.3341
▁Hematology	-11.3344
▁gastritis	-11.3344
GI	-11.3346
ring	-11.3347
▁brachial	-11.3352
ability	-11.3357
RR	-11.3361
▁antigens	-11.3364
▁blunt	-11.3365
▁temporal	-11.3365
▁platelets	-11.3367
▁spectrum	-11.3367
▁gạc	-11.3368
▁Bác	-11.3372
▁hereditary	-11.3374
▁APACHE	-11.3386
▁storage	-11.3386
▁susceptible	-11.3386
▁student	-11.3393
▁NV	-11.3404
▁aggressive	-11.3404
▁excretion	-11.3407
▁tàu	-11.3407
▁abnormality	-11.3408
▁worse	-11.341
▁opening	-11.3412
▁smaller	-11.3415
▁aging	-11.3424
▁bền	-11.3425
▁usual	-11.3425
▁plants	-11.3426
▁nhện	-11.3428
Đối	-11.3428
▁failed	-11.343
▁dust	-11.3433
▁nhổ	-11.3434
▁ICD	-11.3436
OH	-11.3437
DR	-11.3439
▁antibacterial	-11.3449
▁recruited	-11.3449
sa	-11.3452
control	-11.3454
▁chích	-11.3454
▁Tử	-11.3463
▁hematuria	-11.3464
ric	-11.3468
▁paracetamol	-11.3469
▁warfarin	-11.347
▁supra	-11.348
▁reach	-11.3487
▁sinusitis	-11.3487
abdominal	-11.3494
▁hormones	-11.3498
▁definitive	-11.351
HT	-11.3512
▁Complete	-11.3512
▁fibrinogen	-11.3512
▁floor	-11.3512
▁swallowing	-11.3513
▁Ultrasound	-11.352
▁Lao	-11.3523
▁influenzae	-11.3524
▁extension	-11.3527
▁scar	-11.3528
▁throughout	-11.3535
ING	-11.3536
▁photo	-11.3537
▁chờ	-11.3537
▁autosomal	-11.3537
▁Nang	-11.3543
TC	-11.3543
▁providing	-11.3555
ize	-11.3557
▁fossa	-11.3576
▁endemic	-11.3579
▁mast	-11.3584
ors	-11.3588
▁ro	-11.3591
▁molars	-11.3596
▁Laboratory	-11.3597
▁conclusions	-11.36
ID	-11.3601
▁trạm	-11.3608
▁cytokines	-11.3612
ohnson	-11.3619
▁randomly	-11.362
▁suggesting	-11.3623
▁Ra	-11.3624
▁periods	-11.3624
over	-11.3626
▁microscopic	-11.3629
▁cure	-11.3629
▁dislocation	-11.3634
▁core	-11.3646
▁ventilator	-11.3646
▁Phi	-11.3653
▁cholinergic	-11.3653
threatening	-11.3654
▁Position	-11.3662
▁depressive	-11.3662
▁pages	-11.3663
▁magnesium	-11.3678
group	-11.3679
▁final	-11.3681
▁SLE	-11.3684
▁bạo	-11.3684
▁key	-11.3684
▁Hồng	-11.3693
▁selective	-11.3702
▁Additional	-11.3702
▁electrolyte	-11.3702
▁reflect	-11.3703
▁clindamycin	-11.3705
▁surfactant	-11.3705
▁otherwise	-11.3705
▁changing	-11.3707
▁referred	-11.3708
ED	-11.3711
▁tablets	-11.3721
▁humans	-11.3724
▁digestive	-11.3726
erson	-11.3728
▁prediction	-11.3728
▁giảng	-11.3729
▁Hung	-11.3736
▁tibial	-11.3738
các	-11.3747
▁Salmonella	-11.3748
▁conduction	-11.3749
▁cối	-11.375
▁hematocrit	-11.3751
▁exercises	-11.3752
▁mọc	-11.3752
ụt	-11.3752
ms	-11.3762
▁newly	-11.3765
▁consecutive	-11.3767
▁flexion	-11.3768
ĐTĐ	-11.3776
nic	-11.3785
ống	-11.3786
▁sảng	-11.3786
ning	-11.3788
▁nhẫn	-11.3791
guided	-11.3792
▁suffered	-11.3794
▁rào	-11.3799
▁restriction	-11.3803
▁aid	-11.3806
▁smear	-11.3809
▁amin	-11.381
▁đứ	-11.3813
▁syphilis	-11.3813
▁tobacco	-11.3813
▁otitis	-11.3813
▁bìu	-11.3814
▁khò	-11.3814
▁mốc	-11.382
▁Vương	-11.382
▁attacks	-11.3837
▁interactions	-11.3839
mean	-11.3844
NS	-11.385
cyclophosphamide	-11.385
tại	-11.3854
EP	-11.3855
▁acceptable	-11.3857
▁ốc	-11.3869
▁Infants	-11.3886
▁carbohydrate	-11.3887
iện	-11.3892
▁got	-11.3895
▁relationships	-11.3899
▁lifestyle	-11.3901
▁conversion	-11.3902
▁multiplex	-11.3904
▁fluor	-11.3907
được	-11.3909
▁surgeons	-11.391
▁ECMO	-11.3912
wards	-11.3914
▁severely	-11.3914
▁Tumor	-11.3919
▁embolization	-11.392
be	-11.392
IA	-11.3921
▁robot	-11.3922
▁prescription	-11.3925
▁inserted	-11.3925
OS	-11.3929
estern	-11.3931
phy	-11.3938
▁mineral	-11.3939
uản	-11.3946
▁Herpes	-11.3949
▁recently	-11.3951
ure	-11.3954
▁digital	-11.3955
acquired	-11.3956
▁dãy	-11.3957
▁dan	-11.3962
itfalls	-11.3967
▁traffic	-11.3967
▁cãi	-11.3967
▁properties	-11.3967
▁differential	-11.397
MB	-11.3975
▁observation	-11.3976
▁chạm	-11.3977
CR	-11.3982
▁domestic	-11.399
▁Intensive	-11.399
▁vòi	-11.399
▁peptide	-11.3999
▁movements	-11.4004
▁induce	-11.4012
▁Plasma	-11.4012
▁vocal	-11.4012
▁presenting	-11.4019
ose	-11.4024
▁interferon	-11.4024
▁sarcoma	-11.4027
▁AT	-11.403
▁eyelid	-11.403
br	-11.4031
▁lái	-11.4033
▁deformity	-11.4034
▁prominent	-11.4034
▁derivatives	-11.4038
ial	-11.4039
▁phosphatase	-11.4044
▁arch	-11.4044
▁thác	-11.4045
▁Son	-11.405
▁undergo	-11.4052
ov	-11.4053
▁parenteral	-11.4055
CS	-11.4056
▁retinopathy	-11.4056
BT	-11.4059
▁dilated	-11.4059
rom	-11.4062
▁inpatient	-11.4064
▁Str	-11.4067
▁comorbidities	-11.4079
▁walking	-11.4083
▁exacerbations	-11.4086
hồi	-11.4093
▁AV	-11.4095
len	-11.4099
▁true	-11.41
▁Transfusion	-11.4101
▁phó	-11.4104
▁Pediatrics	-11.411
▁contains	-11.4115
▁cartilage	-11.4117
▁animal	-11.412
▁ciprofloxacin	-11.4122
▁Comparison	-11.4124
▁regularly	-11.4128
▁born	-11.4131
▁intravascular	-11.4131
▁opioids	-11.4135
ts	-11.4136
ct	-11.4138
▁VA	-11.4142
▁challenge	-11.4143
▁perforator	-11.4143
▁jaw	-11.4143
▁smoke	-11.4144
▁Ministry	-11.4146
▁phường	-11.4147
▁issue	-11.415
▁fingers	-11.4162
▁relatives	-11.4163
▁Tràn	-11.4167
▁virut	-11.4169
▁ngửa	-11.4169
▁recovered	-11.4173
▁understanding	-11.4174
▁persist	-11.4188
▁epithelial	-11.4188
▁ward	-11.4191
▁Description	-11.4192
▁pancreas	-11.4192
tor	-11.4193
▁cạm	-11.42
DM	-11.4204
▁AML	-11.421
▁intestine	-11.4211
▁objects	-11.4213
▁Mortality	-11.4214
▁consultation	-11.4214
▁doing	-11.4223
son	-11.4225
▁Nghi	-11.4234
▁define	-11.4235
ON	-11.4237
▁Organization	-11.4237
▁outside	-11.4238
▁herbal	-11.4238
▁come	-11.4242
patients	-11.4246
▁legs	-11.4247
ium	-11.4251
▁rác	-11.4254
▁Studying	-11.4257
▁marked	-11.4258
▁Pearls	-11.426
▁dải	-11.4262
▁Her	-11.4263
(	-11.4265
pr	-11.4269
▁conduct	-11.4276
▁urban	-11.4281
▁atresia	-11.4283
▁tea	-11.4283
▁expected	-11.4283
▁cerebro	-11.4287
▁roots	-11.4288
▁counts	-11.4297
▁ascites	-11.4297
AT	-11.4298
▁anorexia	-11.4306
▁composition	-11.4306
▁hemolytic	-11.4315
▁testicular	-11.4319
▁lines	-11.432
ọc	-11.4327
▁albicans	-11.4327
▁Cushing	-11.4329
▁teaching	-11.4329
▁Analysis	-11.433
▁membranes	-11.4331
▁objectives	-11.4332
▁hepatectomy	-11.434
▁lồ	-11.434
▁layer	-11.4341
▁quai	-11.4342
▁aspects	-11.4347
▁pathway	-11.4349
▁isolation	-11.4352
▁Nhiệt	-11.4352
▁differentiation	-11.4352
▁rời	-11.4353
▁Tạo	-11.4356
▁IFN	-11.4359
▁quát	-11.4359
au	-11.4359
▁interfere	-11.437
▁Female	-11.4372
▁dopamine	-11.4373
▁spleen	-11.4375
▁Stress	-11.4375
▁channel	-11.4377
▁degrees	-11.4385
invasive	-11.4387
▁accident	-11.4392
▁version	-11.4393
coming	-11.4394
▁obvious	-11.4395
▁tunnel	-11.4396
▁nhai	-11.4399
III	-11.4402
▁list	-11.4408
▁giọng	-11.4421
▁Down	-11.4422
▁encephalopathy	-11.443
▁allows	-11.4433
▁bio	-11.4434
▁radio	-11.4434
▁malformation	-11.4441
▁conservative	-11.4443
▁Vắc	-11.4444
▁Hyper	-11.4447
▁discharged	-11.4454
▁Tien	-11.4455
▁trunk	-11.4468
istopathological	-11.4472
ect	-11.4473
▁conclusion	-11.4488
▁junction	-11.4491
▁responsible	-11.4491
▁enlargement	-11.4491
ever	-11.4491
▁Region	-11.4491
▁đọc	-11.4493
▁CNS	-11.4499
▁too	-11.45
▁khổng	-11.4504
CM	-11.4505
▁paper	-11.4512
sau	-11.4518
LA	-11.452
VA	-11.4521
▁KS	-11.4525
men	-11.4526
dimer	-11.4526
RA	-11.4529
▁broad	-11.4534
▁Internal	-11.4538
▁planning	-11.4538
▁mào	-11.454
hypersensitivity	-11.4541
▁Median	-11.4541
▁author	-11.4547
ACE	-11.4553
▁NH	-11.4554
▁subtypes	-11.4555
▁umbilical	-11.4557
level	-11.4564
▁behavioral	-11.4564
▁sound	-11.4565
▁Lo	-11.4567
▁surgically	-11.4573
out	-11.4581
▁vulgaris	-11.4585
▁delta	-11.4585
▁micromol	-11.4587
▁thereby	-11.4589
▁bếp	-11.4602
▁Aim	-11.4605
▁Insulin	-11.4606
▁cardiopulmonary	-11.4608
trước	-11.4615
▁sphincter	-11.4622
▁interventional	-11.4625
▁rhythm	-11.4627
▁meta	-11.4628
▁quyền	-11.4632
▁Nai	-11.4632
▁chlorhexidine	-11.4633
▁discussed	-11.4635
▁pathologic	-11.4635
▁blockers	-11.4641
▁psychological	-11.4642
▁host	-11.4651
ub	-11.4653
▁implementation	-11.4656
▁phồng	-11.4657
trung	-11.4657
▁proton	-11.4658
▁Graves	-11.4659
▁soạn	-11.466
dy	-11.4672
▁analgesics	-11.4672
▁ruptured	-11.4674
▁hoang	-11.4674
▁Genetic	-11.4678
▁cover	-11.4678
▁luật	-11.468
▁proved	-11.468
▁enhancement	-11.4681
▁rise	-11.469
▁CABG	-11.4691
▁sởi	-11.4693
▁obtain	-11.4694
▁BH	-11.4697
▁gót	-11.4703
▁injured	-11.4704
▁enlarged	-11.4704
▁hiv	-11.4706
TK	-11.4714
▁experts	-11.4714
▁International	-11.4714
res	-11.4715
mon	-11.472
▁tools	-11.4723
▁subject	-11.4725
▁infiltration	-11.4727
▁neuromuscular	-11.4728
▁retroperitoneal	-11.4729
▁implemented	-11.473
▁quân	-11.4731
▁Besides	-11.4732
▁phospho	-11.4734
▁mRNA	-11.4736
▁options	-11.4738
▁interview	-11.4739
▁pupils	-11.4744
qui	-11.4744
▁menstrual	-11.4746
▁nhàng	-11.475
▁itself	-11.4752
▁Step	-11.4754
▁minimum	-11.4755
rinary	-11.477
▁ERCP	-11.4772
▁semi	-11.4773
▁Spinal	-11.4775
▁unstable	-11.4775
▁flavonoid	-11.4785
▁Secondary	-11.4787
IN	-11.4794
▁estimate	-11.4795
▁Bản	-11.4797
▁cosmetic	-11.4797
▁reflex	-11.4799
LE	-11.4799
▁technology	-11.4799
▁Sàng	-11.4799
▁instability	-11.4799
▁filtration	-11.4799
gen	-11.481
▁manifests	-11.4815
▁suyễn	-11.4815
ful	-11.4816
▁Scan	-11.4817
▁demand	-11.4818
▁attack	-11.4822
▁axis	-11.4822
▁beneficial	-11.4824
▁ER	-11.4826
mo	-11.4829
▁aldosterone	-11.4829
amine	-11.483
▁huy	-11.4831
otic	-11.4835
▁habits	-11.4838
▁Mắt	-11.4848
▁septum	-11.4848
▁bite	-11.4851
▁trời	-11.4852
▁powder	-11.4854
▁smooth	-11.4858
▁sổ	-11.4859
▁facilitate	-11.4861
qua	-11.4863
▁Gã	-11.4869
▁technical	-11.487
▁CLCS	-11.4884
▁Unit	-11.4895
▁contributi	-11.4896
▁eradication	-11.4897
▁completed	-11.4899
▁nở	-11.4901
▁nephritis	-11.4909
▁botulinum	-11.4909
▁irregular	-11.4917
▁Examination	-11.4921
▁tubular	-11.4921
▁ACTH	-11.4923
▁vital	-11.4925
▁nhạt	-11.4928
▁ranged	-11.4928
▁sequelae	-11.4933
▁steps	-11.4934
▁ineffective	-11.4934
ranging	-11.4935
▁decline	-11.4941
▁frozen	-11.4945
tu	-11.4949
▁St	-11.4952
▁warm	-11.4954
▁injections	-11.4962
▁mini	-11.4964
▁Và	-11.4964
▁febrile	-11.497
▁dangerous	-11.497
▁eventually	-11.497
▁Oct	-11.4971
▁controlling	-11.4973
▁Ghi	-11.4974
AK	-11.4977
▁Sơn	-11.498
▁visit	-11.4985
▁weak	-11.4988
óc	-11.4989
ách	-11.4992
▁specimen	-11.4993
▁INR	-11.4994
▁Nhìn	-11.4994
▁irrigation	-11.4994
▁gút	-11.4996
▁uốn	-11.4999
▁hộp	-11.5004
▁zoster	-11.5006
▁situations	-11.5009
GT	-11.5014
▁adjusted	-11.5015
▁cotton	-11.5019
▁saturation	-11.502
ner	-11.5027
beta	-11.504
▁create	-11.5041
▁cuốn	-11.5041
▁placebo	-11.5043
▁implantation	-11.5044
▁chromatography	-11.5045
▁force	-11.5049
especially	-11.5052
COPD	-11.5052
▁dependent	-11.5055
▁hổng	-11.506
▁attempt	-11.5063
ục	-11.5067
▁nitrogen	-11.5069
▁triglycerid	-11.5069
HCT	-11.507
TR	-11.5075
▁papillary	-11.5079
▁má	-11.5086
▁curcumin	-11.5087
▁functioning	-11.5091
▁Consider	-11.5092
▁tấm	-11.5093
▁hematopoietic	-11.5094
▁đuôi	-11.5095
▁MRSA	-11.5096
▁interviewed	-11.5097
▁Kim	-11.5105
MRI	-11.5109
ten	-11.511
▁prolactin	-11.5118
▁prostatic	-11.5118
▁BPTNMT	-11.5118
▁SPECT	-11.5119
▁temporary	-11.5119
▁MPH	-11.512
ames	-11.5126
▁choose	-11.5133
uôi	-11.5138
hạm	-11.514
▁Văn	-11.5143
▁Glucose	-11.5143
▁suffering	-11.5146
kg	-11.5154
▁rs	-11.5156
tăng	-11.5158
▁neonate	-11.5161
▁repeat	-11.5163
▁syringe	-11.5167
▁stricture	-11.5167
▁ceftriaxone	-11.5168
▁Độc	-11.5169
▁arteriovenous	-11.5172
▁Bo	-11.5173
▁experiences	-11.5187
▁GLS	-11.5189
▁professional	-11.5192
▁suspicion	-11.5193
▁inherited	-11.5193
▁mông	-11.5194
NB	-11.5196
▁uses	-11.5198
ber	-11.5203
▁districts	-11.5206
met	-11.521
▁Khuyế	-11.5213
▁ampicillin	-11.5218
▁vasculitis	-11.5222
ang	-11.5222
▁ngả	-11.5225
▁vân	-11.5225
▁fibrin	-11.5233
▁Tra	-11.5237
▁insomnia	-11.5243
▁destruction	-11.5243
▁anticoagulation	-11.5243
CN	-11.5247
▁educational	-11.5247
val	-11.5248
▁lens	-11.5253
▁bicarbonate	-11.5253
▁móc	-11.5253
TN	-11.5254
▁proliferation	-11.5257
▁corresponding	-11.5264
▁contraceptive	-11.5267
▁Older	-11.5268
▁Thế	-11.527
▁bí	-11.5272
▁occupation	-11.5281
▁rubella	-11.5285
▁cmH	-11.5289
▁amoxicillin	-11.5293
▁Grade	-11.5294
▁cleft	-11.5296
mL	-11.5299
cu	-11.5307
evascularization	-11.531
▁Intra	-11.5319
▁Efficacy	-11.5319
▁delirium	-11.5319
▁relevant	-11.5319
▁Laser	-11.5319
▁khuôn	-11.532
▁bò	-11.532
▁Nhưng	-11.5323
ffectiveness	-11.5323
▁Guidelines	-11.5326
▁morning	-11.5328
duc	-11.5332
▁glycemic	-11.5333
▁nodule	-11.5344
▁gập	-11.5344
▁thickening	-11.5344
▁NAVA	-11.5344
▁Kidney	-11.5346
lic	-11.5349
▁Gy	-11.5351
▁serologic	-11.5352
hapter	-11.5364
▁states	-11.5365
SE	-11.5368
▁questionnaires	-11.5369
▁Tan	-11.537
sion	-11.5373
▁generation	-11.5379
▁Bio	-11.5385
▁HSV	-11.5389
▁variants	-11.5395
▁nắm	-11.5395
▁fusion	-11.5397
pg	-11.5405
▁FAC	-11.541
▁lymphocytes	-11.5417
▁Trà	-11.5421
▁Anemia	-11.5423
▁mua	-11.5428
▁mái	-11.543
▁safely	-11.544
▁hy	-11.544
▁episode	-11.5446
▁nhắm	-11.5447
▁dehydration	-11.5447
huyển	-11.5448
▁vợ	-11.5449
ung	-11.5449
▁practical	-11.545
▁inappropriate	-11.5453
▁đài	-11.5453
▁clean	-11.5455
▁newborns	-11.5458
▁GFR	-11.546
▁khói	-11.5462
▁Men	-11.5462
▁inhibitory	-11.5462
▁electrical	-11.5466
▁understand	-11.5467
▁differ	-11.5468
▁actual	-11.547
operation	-11.5472
▁myeloma	-11.5472
▁mixture	-11.5473
▁washing	-11.5475
▁đạm	-11.5476
our	-11.5485
▁activation	-11.549
▁promote	-11.5491
▁sulfate	-11.5491
▁System	-11.5491
▁lipoprotein	-11.5495
▁digoxin	-11.5498
▁intraocular	-11.5498
▁published	-11.5498
▁RA	-11.5503
▁hydro	-11.5504
AS	-11.5509
fa	-11.5513
ff	-11.5519
▁AFB	-11.5522
egardless	-11.5524
▁keep	-11.5526
ens	-11.5528
oC	-11.553
▁Tay	-11.5539
ud	-11.5544
▁Virginia	-11.555
▁methicillin	-11.555
ster	-11.5551
shaped	-11.5551
MI	-11.5555
▁man	-11.556
generation	-11.5564
▁tension	-11.5572
▁Micro	-11.5576
▁quãng	-11.5576
▁markedly	-11.5579
hite	-11.558
▁altered	-11.5582
▁sense	-11.5589
▁diuretics	-11.5591
▁protect	-11.5591
▁Relationship	-11.5602
▁vaccinated	-11.5602
▁injected	-11.5604
ley	-11.5605
▁gradient	-11.5608
▁fixed	-11.5615
▁extend	-11.5618
▁conjunctivitis	-11.5618
▁histamine	-11.5619
but	-11.562
▁composite	-11.5623
▁medicines	-11.5626
▁endometrial	-11.5628
▁periodontitis	-11.5628
▁trượt	-11.5631
▁deviation	-11.5633
▁transport	-11.5634
▁rectum	-11.5654
▁hot	-11.5654
▁doppler	-11.5654
▁causative	-11.5655
▁viền	-11.5656
theo	-11.5656
▁mood	-11.5659
▁tolerated	-11.5673
va	-11.5677
▁chữ	-11.5678
pt	-11.5681
▁dập	-11.5681
▁erythematosus	-11.5681
▁Nhị	-11.5681
▁allele	-11.5681
▁gastrectomy	-11.5688
mis	-11.5692
▁AF	-11.5693
▁massive	-11.5697
▁makes	-11.5703
▁iliac	-11.5707
cap	-11.5708
▁methanol	-11.5708
▁excluded	-11.5711
den	-11.5711
▁Red	-11.5722
ory	-11.5723
▁own	-11.5724
▁feature	-11.573
▁log	-11.5731
▁Current	-11.5731
▁Three	-11.5734
▁dioxide	-11.5734
▁docking	-11.5734
▁pericardial	-11.5735
▁ethyl	-11.5737
▁đá	-11.5745
og	-11.5751
▁genotypes	-11.5757
▁postoperatively	-11.5757
LC	-11.5758
▁Chlamydia	-11.5759
▁Khó	-11.5759
▁possibility	-11.576
▁lymphadenectomy	-11.576
▁wheezing	-11.576
▁yield	-11.5761
▁murmur	-11.5761
▁Mild	-11.5764
▁linh	-11.5765
ờ	-11.577
▁language	-11.5771
▁ĐMC	-11.5772
▁Specific	-11.5777
▁RBC	-11.5785
▁HOSPITAL	-11.5787
▁cessation	-11.5787
▁circulating	-11.5787
▁qualitative	-11.5787
▁đợi	-11.5787
▁gói	-11.5787
▁nurse	-11.5787
▁surrounding	-11.5787
▁chromosomal	-11.5788
▁animals	-11.5791
▁sounds	-11.5792
▁recover	-11.5794
ou	-11.5795
▁predicted	-11.5798
▁variant	-11.5798
▁direction	-11.5804
▁black	-11.5805
renal	-11.5805
▁Small	-11.5813
▁reasonable	-11.5814
▁monoclonal	-11.5814
▁myelin	-11.5825
▁assisted	-11.5834
▁Stage	-11.5834
▁EBV	-11.5835
▁represent	-11.584
▁international	-11.584
▁accumulation	-11.5841
▁đàm	-11.5842
▁Tiếng	-11.5848
▁bã	-11.5848
most	-11.5852
▁trích	-11.5858
▁thầy	-11.5867
▁pay	-11.5871
▁ABO	-11.5872
▁electrolytes	-11.5872
▁khía	-11.5873
▁meat	-11.5874
▁Percentage	-11.5882
▁speech	-11.5894
▁Infectious	-11.5894
▁nasopharyngeal	-11.5894
▁untreated	-11.5894
▁colitis	-11.5894
▁endovascular	-11.5896
▁trách	-11.5903
▁maintaining	-11.5908
IT	-11.5912
EF	-11.5917
non	-11.5918
▁combining	-11.5921
▁presepsin	-11.5921
▁kép	-11.5921
▁mesenteric	-11.5925
go	-11.5927
showing	-11.5928
OA	-11.5928
ene	-11.5931
▁mát	-11.5931
ush	-11.5934
▁practitioners	-11.5934
▁metronidazole	-11.5934
▁income	-11.594
▁muscular	-11.5946
▁Province	-11.5948
▁Thừa	-11.5948
▁screened	-11.5954
▁bronchial	-11.5956
▁capsules	-11.5957
▁bít	-11.5958
▁sustained	-11.5959
▁velocity	-11.5961
degree	-11.5961
▁núi	-11.5962
▁she	-11.5964
▁Antibiotics	-11.5971
The	-11.5978
▁LU	-11.5983
▁ureter	-11.5983
▁mày	-11.5994
MT	-11.6
▁supplement	-11.6001
▁gross	-11.6002
▁quadrant	-11.6002
▁removing	-11.6002
▁proposed	-11.6003
▁PPV	-11.6006
pha	-11.6007
ư	-11.601
▁indexes	-11.6014
ít	-11.6016
▁bupivacain	-11.6021
▁margin	-11.6023
▁interaction	-11.6024
▁Phục	-11.6029
▁pelvis	-11.6029
▁Occasionally	-11.6029
▁thuyền	-11.6029
▁ENT	-11.6031
▁simultaneously	-11.6031
mid	-11.6031
▁Score	-11.6034
▁administered	-11.6037
▁errors	-11.6047
▁say	-11.6051
▁bọ	-11.6052
▁Lão	-11.6056
▁occurrence	-11.6057
▁cataract	-11.6058
▁reverse	-11.6066
▁skeletal	-11.6066
▁dressing	-11.6072
▁Application	-11.6084
▁lậu	-11.6084
▁nature	-11.6084
▁endothelial	-11.6085
▁rải	-11.6086
LM	-11.6087
▁Nữ	-11.6088
dr	-11.6104
linked	-11.6107
PE	-11.6107
▁prothrombin	-11.6109
▁Bleeding	-11.6111
▁autonomic	-11.6111
▁salivary	-11.6111
▁huyệt	-11.6112
▁frontal	-11.6112
▁guideline	-11.6113
▁splenic	-11.6113
▁Lê	-11.6114
▁bang	-11.6114
▁autologous	-11.6116
arry	-11.6116
coli	-11.6118
▁targeted	-11.6127
SI	-11.6131
▁molar	-11.6136
▁object	-11.6138
▁Vancomycin	-11.6139
▁column	-11.6139
▁dysphagia	-11.6139
anh	-11.6139
▁thyroidectomy	-11.614
ong	-11.6147
▁grafting	-11.6157
af	-11.616
▁Hemoglobin	-11.6163
ốt	-11.6164
virus	-11.6165
▁chamber	-11.6169
▁palpable	-11.6171
▁chướng	-11.6172
▁Cai	-11.6183
▁secretions	-11.6183
▁candida	-11.6185
▁disseminated	-11.6186
▁DSA	-11.6187
ông	-11.619
▁erythromycin	-11.6194
▁torsion	-11.6194
alpha	-11.6195
▁nọc	-11.6195
▁Nói	-11.6196
▁fear	-11.62
▁approaches	-11.6201
RM	-11.6206
▁organism	-11.6207
ular	-11.6208
▁PASI	-11.6215
▁vertical	-11.6219
▁Almost	-11.6222
▁paclitaxel	-11.6222
▁macular	-11.6222
▁phê	-11.6222
▁household	-11.6223
▁my	-11.6239
▁xi	-11.6243
▁Traditional	-11.6247
▁Michael	-11.6249
▁surveillance	-11.6249
▁scarring	-11.625
ck	-11.6253
not	-11.6255
▁Nhu	-11.6258
▁settings	-11.6259
▁lui	-11.626
▁zone	-11.6264
ll	-11.6267
▁progesterone	-11.627
▁xịt	-11.6277
▁Vết	-11.6278
▁port	-11.6281
▁fewer	-11.6283
▁vegetables	-11.629
ê	-11.6296
hằng	-11.6303
▁GBS	-11.6304
▁studying	-11.6305
▁trend	-11.6305
▁Gi	-11.6306
▁sevoflurane	-11.6306
▁PEEP	-11.6311
▁Ngư	-11.6311
▁staffs	-11.6313
▁Para	-11.6314
▁vivo	-11.6315
▁intact	-11.6315
que	-11.6319
▁valvular	-11.6327
▁nứt	-11.6334
▁dứt	-11.6335
▁classic	-11.6335
▁recur	-11.6339
▁Neuro	-11.634
PI	-11.6343
▁periodic	-11.6344
▁UTI	-11.6345
ess	-11.6345
▁adenoma	-11.6354
▁copies	-11.6354
▁màn	-11.6358
▁psychiatric	-11.6362
▁sẩn	-11.6362
▁matter	-11.6362
▁magiê	-11.6362
▁mí	-11.6364
▁thoải	-11.6364
▁put	-11.6373
▁operations	-11.6375
▁fruit	-11.6381
▁prompt	-11.6387
▁GERD	-11.6389
Barr	-11.6393
lan	-11.6394
▁bọc	-11.6401
▁Changes	-11.6402
▁GC	-11.6403
▁though	-11.6404
ô	-11.6406
▁ICP	-11.6411
▁Manifestations	-11.6418
▁chùm	-11.6418
▁Kien	-11.6419
▁nâu	-11.6419
▁Comment	-11.642
▁resulted	-11.6421
▁rice	-11.643
▁menopause	-11.643
hile	-11.6434
▁confidence	-11.6437
▁PS	-11.6438
▁Follow	-11.6441
▁cyclosporine	-11.6442
▁gonadotropin	-11.6444
▁Topical	-11.6445
▁distention	-11.6446
▁đập	-11.6446
▁chloride	-11.6446
▁modern	-11.6446
Gastrointestinal	-11.6447
▁maintained	-11.6458
▁pathogen	-11.6459
dependent	-11.6459
ler	-11.6461
▁carriers	-11.6461
▁troponin	-11.6464
▁comprehensive	-11.6472
▁Cervical	-11.6475
▁Lupus	-11.6475
▁measles	-11.6475
▁tẩy	-11.6475
▁Deficiency	-11.6475
▁fungi	-11.6476
▁Once	-11.6476
port	-11.6476
▁lumen	-11.6479
UT	-11.6483
IR	-11.6485
▁FDA	-11.6487
eight	-11.649
▁Dis	-11.649
▁cà	-11.6494
▁fact	-11.6499
▁compartment	-11.6499
ak	-11.6502
▁malignancy	-11.6503
▁reliability	-11.6503
▁đậm	-11.6503
▁Design	-11.6503
▁perception	-11.6506
▁coefficient	-11.6506
▁ongoing	-11.6507
getting	-11.6511
▁disk	-11.6514
▁users	-11.6515
▁physiologic	-11.6516
▁LC	-11.6525
clinical	-11.6526
▁khắc	-11.6532
▁degeneration	-11.6532
▁North	-11.6533
bin	-11.6538
▁Body	-11.6542
▁binding	-11.6549
▁green	-11.6551
▁pathogenic	-11.6558
▁Virus	-11.6559
▁controversial	-11.6561
▁Acid	-11.6561
▁Less	-11.6566
tine	-11.6567
▁inhaled	-11.6575
art	-11.6575
▁HCCH	-11.6577
ick	-11.6582
▁prophylactic	-11.6584
stimulating	-11.6585
▁Depression	-11.659
▁distant	-11.659
▁capillary	-11.659
▁carcinomas	-11.6592
▁calculi	-11.6593
▁Dung	-11.6598
▁signal	-11.6599
▁sexually	-11.6599
▁deficit	-11.6603
▁HT	-11.6605
nal	-11.661
▁look	-11.6612
▁Regarding	-11.6618
▁already	-11.6618
▁adolescent	-11.6621
▁antifungal	-11.6621
chi	-11.6625
▁distinguished	-11.6628
▁FiO	-11.6628
▁statistics	-11.6631
▁worsen	-11.6635
▁EV	-11.6642
▁rotation	-11.6644
containing	-11.6647
▁cholecystitis	-11.6647
▁Lyme	-11.6648
ust	-11.6651
tru	-11.6652
▁incomplete	-11.6652
▁hepato	-11.6654
LT	-11.6657
▁researchers	-11.6657
▁Aspergillus	-11.666
▁mại	-11.6663
▁Thoá	-11.667
▁Breast	-11.6676
▁Equipment	-11.6676
▁scanning	-11.6677
▁preliminary	-11.6677
▁suggestive	-11.6678
▁trồng	-11.6681
▁plastic	-11.6682
▁airways	-11.669
▁proven	-11.6702
▁meropenem	-11.6706
▁thick	-11.6706
▁carefully	-11.6708
NK	-11.6711
▁adjuvant	-11.6711
▁morphin	-11.6712
▁forearm	-11.6712
▁gap	-11.6714
com	-11.672
VD	-11.6731
▁relating	-11.6735
▁procalcitonin	-11.6735
▁Currently	-11.6737
▁Ngay	-11.6738
▁ngất	-11.6749
▁amniot	-11.6751
blockers	-11.6751
US	-11.6754
max	-11.6761
histochemistry	-11.6764
▁Dietary	-11.6764
▁cream	-11.6767
▁Direct	-11.6769
after	-11.6769
rầm	-11.6773
uận	-11.6774
▁South	-11.6774
▁performing	-11.6775
▁indirect	-11.6777
▁tyrosine	-11.6778
sol	-11.6779
▁gi	-11.678
▁hổ	-11.6781
MP	-11.6781
ack	-11.6792
▁nướu	-11.6793
▁LA	-11.6797
▁walk	-11.6801
▁tốn	-11.6806
▁Local	-11.6808
▁NST	-11.6812
▁segments	-11.6814
OT	-11.6815
▁hypoxemia	-11.6823
▁insufficient	-11.6823
▁synthesized	-11.6823
▁Consideration	-11.6824
▁oxygenation	-11.6825
▁NO	-11.6828
▁processes	-11.6833
▁ure	-11.6834
CV	-11.6834
rid	-11.6837
▁Per	-11.6838
▁dead	-11.684
▁goals	-11.6842
▁AR	-11.6851
ystatin	-11.6852
▁glôcôm	-11.6852
▁irritation	-11.6852
▁multivariate	-11.6852
▁hemolysis	-11.6852
▁sequence	-11.6854
▁dosing	-11.6854
▁underweight	-11.6857
lysis	-11.6858
▁orthopedic	-11.6871
HP	-11.6872
ốc	-11.6873
ips	-11.6877
▁market	-11.688
▁intervals	-11.6881
▁Studie	-11.6882
▁Supportive	-11.6882
▁confusion	-11.6882
▁usage	-11.6883
▁iốt	-11.6883
▁calci	-11.6883
▁imipenem	-11.6884
nếu	-11.6888
HCM	-11.6895
▁kiệt	-11.6899
les	-11.6899
▁sarcoidosis	-11.6899
▁tắm	-11.6912
▁violence	-11.6912
ilson	-11.6912
AE	-11.6915
▁contraction	-11.6916
▁Mental	-11.6942
▁rejection	-11.6942
▁Antibiotic	-11.6946
▁donation	-11.6948
▁nonsteroid	-11.6949
side	-11.6952
▁NSAIDs	-11.6959
▁appeared	-11.696
cc	-11.696
tissue	-11.696
BV	-11.6961
▁Dr	-11.6962
era	-11.6969
▁Number	-11.6972
▁azithromycin	-11.6972
▁ngắt	-11.6972
▁Sleep	-11.6972
▁importance	-11.6972
▁Determining	-11.6972
▁tremor	-11.6975
▁arrhythmia	-11.6975
form	-11.6976
▁greatly	-11.6977
▁Corticosteroids	-11.6981
▁his	-11.6986
gu	-11.6987
▁trướng	-11.6989
▁GnRH	-11.6993
▁unnecessary	-11.7002
▁palate	-11.7002
▁myeloid	-11.7002
oint	-11.7003
anti	-11.7003
▁filling	-11.7005
▁nmol	-11.7005
ef	-11.7006
▁numbers	-11.7007
▁select	-11.7007
▁epidemic	-11.7008
▁thumb	-11.7009
▁BC	-11.7009
▁waves	-11.7014
▁limits	-11.7017
CK	-11.7028
▁Albumin	-11.7032
▁cyanosis	-11.7032
▁hemophilia	-11.7032
▁lợn	-11.7032
▁foramen	-11.7032
▁Vuong	-11.7033
immunodeficiency	-11.7033
▁disturbance	-11.7036
nam	-11.7038
GA	-11.704
▁catheters	-11.7043
mb	-11.7046
▁ranges	-11.7056
▁epidemiology	-11.7057
reactive	-11.7057
trên	-11.7057
▁gauze	-11.7062
▁interleukin	-11.7062
▁voice	-11.7062
▁ngân	-11.7066
▁variation	-11.7066
▁feasibility	-11.7092
▁itching	-11.7092
▁sonde	-11.7092
▁CPAP	-11.7093
▁Typically	-11.7093
▁growing	-11.7095
ical	-11.7109
▁auto	-11.7109
hình	-11.7111
▁Mạch	-11.7111
▁Coronary	-11.7112
▁transferrin	-11.712
▁Cu	-11.7122
▁approved	-11.7122
▁immunization	-11.7122
▁mép	-11.7122
▁retrograde	-11.7122
▁babies	-11.7123
▁nucleotide	-11.7128
▁histopathologic	-11.7133
TG	-11.7134
cus	-11.7138
▁Tân	-11.714
ero	-11.7141
EC	-11.7142
▁resolution	-11.7148
▁stain	-11.7149
▁giấy	-11.7153
▁phiếu	-11.7153
thalassemia	-11.7153
▁validated	-11.7154
▁detailed	-11.7155
Mục	-11.7158
▁thạch	-11.7158
▁accurately	-11.7159
▁liềm	-11.7161
▁effusions	-11.7174
ual	-11.7179
life	-11.718
▁lơ	-11.718
▁concomitant	-11.7181
▁First	-11.7181
▁Carbapenem	-11.7183
▁Phuong	-11.7184
▁cirrhotic	-11.7184
▁Gầ	-11.7192
▁compound	-11.7194
▁Left	-11.7196
▁KAP	-11.7199
▁DO	-11.72
▁Sub	-11.7202
▁TA	-11.7203
▁surfaces	-11.7205
▁predictors	-11.7206
VC	-11.7212
▁morphological	-11.7213
▁amphotericin	-11.7214
▁lichen	-11.7214
▁penile	-11.7216
creased	-11.7219
▁urticaria	-11.722
▁Any	-11.7221
▁ADA	-11.7226
▁bay	-11.7226
▁Ex	-11.7238
▁move	-11.7238
ay	-11.7239
▁bồ	-11.724
▁mobility	-11.7243
▁cellulitis	-11.7245
▁giọt	-11.7245
▁dehydrogenase	-11.7245
▁prevalent	-11.7245
DNA	-11.7246
PH	-11.725
▁larvae	-11.7256
▁prone	-11.7257
mat	-11.7259
▁meals	-11.7264
▁VT	-11.7266
▁chó	-11.7272
▁households	-11.7274
▁Cardiology	-11.7276
▁cholangitis	-11.7276
▁ngấm	-11.7276
▁anion	-11.7278
▁calcification	-11.7279
▁dáng	-11.7281
▁colonic	-11.7281
ug	-11.7281
▁reversible	-11.7289
▁power	-11.7293
▁away	-11.7297
▁preparations	-11.7297
▁kit	-11.7298
▁hypothermia	-11.7307
▁sigma	-11.7307
▁intense	-11.7307
▁prolong	-11.7307
▁Through	-11.7307
▁Loạ	-11.7309
▁asked	-11.731
▁portion	-11.7312
ana	-11.7312
ụng	-11.7314
▁kcal	-11.7315
hội	-11.7318
▁CC	-11.7321
▁parenchyma	-11.7327
▁persons	-11.7336
▁Stroke	-11.7338
▁cytomegalovirus	-11.7338
▁IB	-11.7339
▁replaced	-11.7341
▁specifically	-11.7341
▁PaCO	-11.7345
▁Liệt	-11.7346
▁thong	-11.7356
tis	-11.7358
▁hải	-11.7359
▁bv	-11.7359
▁hematology	-11.736
▁Diagnose	-11.7369
▁Hậu	-11.7369
▁difficile	-11.7369
▁lymphadenopathy	-11.7369
▁khiển	-11.7369
▁discovered	-11.737
▁Máu	-11.737
leveland	-11.7372
▁ướt	-11.7375
▁nicotine	-11.7376
▁observational	-11.7383
▁embryo	-11.7386
▁đinh	-11.7389
ides	-11.7391
infected	-11.7392
▁xoá	-11.7394
▁seek	-11.7396
▁levodopa	-11.74
▁undergone	-11.74
aceae	-11.7404
▁properly	-11.7405
▁vena	-11.7405
▁chải	-11.7408
▁inhibition	-11.741
infection	-11.7414
▁NS	-11.7415
drug	-11.7416
▁metal	-11.7417
Bệnh	-11.7417
▁Bacillus	-11.742
▁giant	-11.742
▁travel	-11.7424
▁separate	-11.7426
▁limbs	-11.7428
▁tì	-11.7428
▁Glisson	-11.7431
▁vietnamese	-11.7431
▁European	-11.7432
▁provincial	-11.7433
▁job	-11.7437
▁Tumors	-11.7438
▁dislocations	-11.7438
▁Cholesterol	-11.7443
▁Peripheral	-11.7443
▁lymphocyte	-11.7444
▁That	-11.7446
hr	-11.7448
▁fiber	-11.7449
để	-11.745
▁triggers	-11.7452
oral	-11.7454
▁populations	-11.7457
▁instead	-11.7463
▁niệm	-11.7463
▁amikacin	-11.7464
▁lân	-11.7464
▁Ngoc	-11.7464
Each	-11.7465
▁oxide	-11.7468
TL	-11.7472
▁isolates	-11.7473
▁eggs	-11.7479
▁clarithromycin	-11.7485
▁ván	-11.7487
▁brief	-11.7492
DI	-11.7492
▁accompany	-11.7494
▁levofloxacin	-11.7494
▁cervix	-11.7494
▁recessive	-11.7494
▁phosphat	-11.7495
PO	-11.7497
▁adjustment	-11.75
▁cement	-11.75
▁NSCLC	-11.7501
▁gold	-11.7503
section	-11.7505
rich	-11.751
▁rủ	-11.7524
▁sac	-11.7525
▁Author	-11.7526
▁gentamicin	-11.7526
▁Injury	-11.7526
▁came	-11.7526
▁items	-11.7526
▁ruồi	-11.7526
▁VND	-11.7527
▁palliative	-11.7528
▁Luận	-11.753
IS	-11.7533
proliferative	-11.7538
▁Error	-11.7557
▁histology	-11.7557
▁Brain	-11.7557
▁Percutaneous	-11.7558
▁Radiation	-11.7558
▁satisfactory	-11.7558
▁polyphenol	-11.7565
tous	-11.7566
ration	-11.7566
▁positively	-11.7569
▁Pneumonia	-11.7569
▁timely	-11.757
▁retrospectively	-11.7571
▁damaged	-11.7571
▁instrument	-11.7574
▁ADHD	-11.7577
▁wet	-11.7579
▁segmental	-11.7585
pre	-11.7586
▁histologic	-11.7586
▁cornea	-11.7588
▁vietnam	-11.7589
▁Epstein	-11.7589
typically	-11.759
▁minority	-11.759
▁Cường	-11.7592
▁phun	-11.7594
▁nhat	-11.7603
right	-11.7604
▁predispose	-11.7619
▁pharmaceutical	-11.762
▁Trauma	-11.7621
▁amyloidosis	-11.7621
▁Right	-11.7622
▁Bảo	-11.7623
▁rỉ	-11.7623
▁intolerance	-11.7624
▁Hút	-11.7625
▁caring	-11.7629
▁que	-11.7636
▁nổ	-11.7636
ros	-11.764
▁instruments	-11.7647
▁Nha	-11.7648
▁Administration	-11.7653
▁anaphylaxis	-11.7653
▁patent	-11.7653
▁renin	-11.7653
▁supported	-11.7655
▁ductus	-11.7656
▁bites	-11.7658
▁outbreak	-11.7659
▁pts	-11.7666
▁chosen	-11.7668
mus	-11.767
▁Thyroid	-11.7685
▁trachomatis	-11.7685
▁Vascular	-11.7685
▁Therapy	-11.7685
rot	-11.7686
▁chơi	-11.7687
mcg	-11.7687
giảm	-11.7689
▁tricuspid	-11.7689
▁HR	-11.7691
▁article	-11.7691
▁resolves	-11.7694
otomy	-11.7696
▁Short	-11.7698
DP	-11.77
▁NPV	-11.77
▁tears	-11.7702
rt	-11.7703
▁HC	-11.7703
MA	-11.7708
▁tropical	-11.7717
▁Fallot	-11.7718
▁Family	-11.7718
▁bacteremia	-11.7718
▁subtilis	-11.7718
▁occult	-11.7718
amp	-11.7718
▁preservation	-11.7718
▁Lai	-11.7719
▁Cephalosporin	-11.7724
▁Practice	-11.7724
▁worsening	-11.7724
▁đâm	-11.7724
DT	-11.7733
▁ART	-11.7735
EN	-11.7736
▁suction	-11.7744
CNS	-11.7747
▁RSV	-11.7747
▁chứ	-11.7749
▁celiac	-11.775
▁flexible	-11.775
▁bacilli	-11.775
▁widespread	-11.775
▁Thuận	-11.775
▁beyond	-11.775
▁mouse	-11.775
▁pseudo	-11.7755
intervention	-11.7756
▁polymorphism	-11.7756
▁antiviral	-11.7757
▁requirement	-11.776
▁hemorrhoids	-11.776
▁tây	-11.7761
TD	-11.7771
▁leak	-11.7772
▁seems	-11.7774
cent	-11.7778
▁Lower	-11.778
▁Certain	-11.7782
▁David	-11.7782
▁Evidence	-11.7782
▁myopia	-11.7782
▁rituximab	-11.7782
▁đựng	-11.7782
RADS	-11.7782
bilirubinemia	-11.7783
▁faster	-11.7784
hat	-11.7797
▁RL	-11.7799
▁limitations	-11.7802
▁examinations	-11.7804
▁project	-11.7806
▁lắp	-11.7815
▁dilatation	-11.7815
▁Clinicians	-11.7815
▁Ngộ	-11.7815
▁fecal	-11.7815
▁thọ	-11.7817
▁noninvasive	-11.7819
ầm	-11.7825
▁timing	-11.7825
due	-11.7825
normal	-11.7829
út	-11.7833
▁psychologic	-11.7833
▁moderately	-11.7836
▁complement	-11.7838
▁transverse	-11.7841
▁Relevan	-11.7847
▁vã	-11.7847
▁Haemophilus	-11.7847
▁Value	-11.7847
▁sick	-11.7849
▁interviews	-11.785
▁expressed	-11.7851
▁wear	-11.7852
▁dizziness	-11.7862
Gy	-11.7866
▁Bàn	-11.7871
▁concurrent	-11.7878
▁dorsal	-11.788
▁ninh	-11.7881
▁gầy	-11.7882
▁driving	-11.7883
▁Effect	-11.7884
▁guided	-11.7884
▁tender	-11.7884
▁triple	-11.7886
▁intellectual	-11.7888
▁America	-11.7893
▁Compare	-11.7894
pulmonary	-11.7895
week	-11.7895
surgical	-11.7896
ITH	-11.7896
▁PA	-11.79
hose	-11.7903
▁raw	-11.7908
ones	-11.7908
▁smokers	-11.7909
▁goiter	-11.7913
▁remedy	-11.7913
▁arteriosus	-11.7913
ó	-11.7913
olar	-11.7913
▁grafts	-11.7915
▁Thiên	-11.7918
▁persists	-11.7918
▁syncope	-11.7918
▁anticoagulant	-11.792
▁cờ	-11.7921
▁alen	-11.7925
lated	-11.7937
▁Asia	-11.7937
▁UV	-11.7939
RAR	-11.794
ain	-11.794
▁măng	-11.7946
▁copper	-11.7946
▁Single	-11.7946
sia	-11.7951
etermination	-11.7952
▁documented	-11.7952
▁covered	-11.7953
▁immunoglobulin	-11.7953
▁Disorder	-11.7953
▁Phim	-11.7958
▁enter	-11.7958
▁contributes	-11.7959
▁RLC	-11.7965
producing	-11.7965
▁BI	-11.7966
▁going	-11.7967
▁trained	-11.7975
▁PI	-11.7978
▁prosthesis	-11.7979
▁sấp	-11.7979
▁tachypnea	-11.7979
▁Saint	-11.7979
▁thoại	-11.7981
▁Methodology	-11.7981
▁chêm	-11.7982
ina	-11.7983
EA	-11.7983
▁falciparum	-11.7984
▁aspect	-11.7986
▁Tiết	-11.7988
▁Phố	-11.7994
about	-11.8001
nuclear	-11.8007
▁SF	-11.8009
▁ADC	-11.8009
▁miRNA	-11.8013
▁bipolar	-11.8013
▁LR	-11.8014
▁ngạt	-11.8015
iềm	-11.8019
▁film	-11.8021
▁recognize	-11.8024
▁Nhật	-11.8027
▁neutrophil	-11.8028
dic	-11.8029
ow	-11.8033
▁collagen	-11.8037
▁harm	-11.8039
fl	-11.8039
▁Identify	-11.804
▁interest	-11.8044
▁pruritus	-11.8046
▁Moreover	-11.8046
▁Họng	-11.8047
▁pass	-11.8053
SK	-11.8059
ification	-11.806
emic	-11.8062
can	-11.8064
mmunosuppressive	-11.8065
▁Ru	-11.8069
▁Tests	-11.8072
sh	-11.8076
▁exploration	-11.808
▁strictures	-11.808
▁trộn	-11.8081
▁ngựa	-11.8081
▁inside	-11.8084
▁eat	-11.8085
▁Pham	-11.8085
▁Chủ	-11.8095
▁yellow	-11.8097
▁Cell	-11.8104
AST	-11.8105
xi	-11.8112
▁Gồm	-11.8112
▁hypercalcemia	-11.8112
▁hysterectomy	-11.8112
▁RBCs	-11.8113
▁penis	-11.8113
▁stiffness	-11.8113
atch	-11.8114
▁thiamin	-11.8115
▁sweating	-11.8117
▁critically	-11.8118
▁PDA	-11.8132
▁kinds	-11.8133
▁mấu	-11.8135
▁avoiding	-11.8139
ces	-11.814
spectrum	-11.8143
uria	-11.8144
▁surgeries	-11.8146
▁Head	-11.8146
▁elective	-11.8147
▁artificial	-11.8149
▁Lesions	-11.8152
use	-11.8153
ists	-11.8153
▁plaques	-11.8158
zo	-11.8161
▁STEMI	-11.8175
▁cốt	-11.8176
hưa	-11.8179
▁hypoxia	-11.818
▁Penicillin	-11.818
▁chép	-11.818
▁alkaline	-11.818
▁hiếu	-11.818
▁bạc	-11.818
▁splint	-11.8182
sided	-11.8184
▁tubes	-11.8184
▁bolus	-11.819
▁TIMI	-11.8191
▁chemicals	-11.8192
tro	-11.8193
▁Am	-11.8195
▁atopic	-11.8197
▁cava	-11.8209
▁unusual	-11.8211
▁Sample	-11.8214
▁rifampin	-11.8214
▁intrauterine	-11.8214
MV	-11.8215
▁vagina	-11.8216
tive	-11.8216
▁laparotomy	-11.8217
AR	-11.8218
▁Pa	-11.8222
▁Phổi	-11.8223
▁raise	-11.8223
table	-11.8225
BR	-11.8236
▁AC	-11.8236
▁thú	-11.8242
▁computer	-11.8248
▁congestion	-11.8248
▁military	-11.8248
▁nhấn	-11.8248
▁participating	-11.8248
▁thromboembolism	-11.8248
▁Since	-11.8248
ome	-11.8249
▁mucous	-11.8249
▁carry	-11.825
▁schedule	-11.8253
▁record	-11.8257
meter	-11.8258
▁En	-11.8266
han	-11.8266
BS	-11.827
▁ED	-11.8271
▁gait	-11.8279
▁constant	-11.8279
▁front	-11.828
▁chlamydia	-11.828
tation	-11.8281
▁AS	-11.8281
▁erythropoietin	-11.8282
▁appendectomy	-11.8282
▁leaf	-11.8282
▁mature	-11.8282
▁progresses	-11.8285
protein	-11.8289
▁supporting	-11.8294
▁UT	-11.8302
▁Med	-11.8303
▁sâm	-11.8306
avi	-11.8311
DS	-11.8312
ICU	-11.8314
▁vaginitis	-11.8316
▁visceral	-11.8316
▁Ultrasonography	-11.8317
▁SM	-11.8317
▁varices	-11.8318
▁luồng	-11.832
are	-11.8339
▁Procedure	-11.834
▁Apply	-11.8345
▁Situation	-11.835
▁colonoscopy	-11.8351
▁numerous	-11.8351
▁Up	-11.8354
▁epi	-11.8354
▁dB	-11.8356
▁glucocorticoid	-11.8359
▁positions	-11.8362
▁mống	-11.8365
▁bring	-11.8365
▁HS	-11.8375
ax	-11.8377
▁Even	-11.8378
▁assays	-11.8382
▁fine	-11.8382
▁patch	-11.8383
▁Public	-11.8385
▁cytology	-11.8385
▁analysed	-11.8386
▁never	-11.8386
▁favorable	-11.8388
▁cằm	-11.8388
▁lactic	-11.8393
▁edge	-11.8394
tt	-11.8395
▁Fractures	-11.8401
▁khổ	-11.8403
▁ON	-11.8403
▁endo	-11.8405
HCC	-11.8405
▁wasting	-11.8409
▁dark	-11.8411
▁Dak	-11.8412
▁Vaccine	-11.8413
▁statin	-11.8415
▁blue	-11.8417
▁Gamma	-11.8419
▁deformities	-11.8419
▁quantity	-11.8419
▁intrahepatic	-11.8419
▁sun	-11.8423
▁advance	-11.8423
▁coronavirus	-11.8424
▁implants	-11.8426
▁perioperative	-11.8426
▁đức	-11.8437
▁BNP	-11.8438
hằm	-11.8438
▁replace	-11.844
▁VATS	-11.8443
TnT	-11.8445
▁urgent	-11.8452
▁traction	-11.8453
▁Biopsy	-11.8454
▁carcinoid	-11.8454
▁GRACE	-11.8454
▁subacute	-11.8454
▁degenerative	-11.8455
▁unable	-11.8456
▁Pelvi	-11.8463
▁Despite	-11.8465
LV	-11.8476
ha	-11.8477
▁Fr	-11.8486
▁developmental	-11.8487
illiam	-11.8488
▁lấp	-11.8489
▁fluoride	-11.849
▁rìa	-11.849
▁visits	-11.8492
▁activated	-11.8493
▁max	-11.8494
▁VSD	-11.8496
▁Image	-11.8498
▁molecules	-11.8501
▁chai	-11.8505
▁bối	-11.8505
TO	-11.8509
▁toxins	-11.8514
arnings	-11.8515
▁corrected	-11.852
▁strengthen	-11.8522
▁Positive	-11.8524
▁Alpha	-11.8524
▁outflow	-11.8525
▁rãnh	-11.8526
▁original	-11.8526
▁ngà	-11.8528
▁big	-11.8529
▁continuously	-11.8533
▁Đầu	-11.8533
▁screw	-11.8536
▁recipients	-11.8542
amin	-11.8549
▁vá	-11.8552
▁scalp	-11.8558
▁ceton	-11.8559
▁rich	-11.8559
▁Pharm	-11.8559
▁apical	-11.856
▁reflexes	-11.8561
Ch	-11.8561
variceal	-11.8562
rb	-11.8565
▁cụm	-11.8567
▁focused	-11.8568
▁formulation	-11.8569
▁Chuyên	-11.8569
▁sides	-11.8572
▁act	-11.8572
▁meeting	-11.8575
▁derived	-11.8575
▁huynh	-11.8576
▁feeling	-11.8577
▁CHA	-11.8578
der	-11.8582
▁Tam	-11.8583
▁melanoma	-11.8585
▁tablet	-11.8586
▁anticoagulants	-11.8586
▁ulnar	-11.8588
ụ	-11.8591
▁Trang	-11.8591
▁khắp	-11.8594
▁purpura	-11.8594
▁schizophrenia	-11.8594
▁Deep	-11.8595
▁Lam	-11.8595
▁súc	-11.8599
▁predominant	-11.8603
▁subtype	-11.8604
▁predictor	-11.8607
▁ám	-11.8612
▁ducts	-11.8612
▁LI	-11.8617
body	-11.8619
▁bind	-11.8621
▁Fetal	-11.8622
▁Epi	-11.8625
▁assigned	-11.8629
▁bẩn	-11.8629
▁elsewhere	-11.8629
▁initiation	-11.8629
▁society	-11.8629
▁managing	-11.8629
▁ovary	-11.8629
▁Thien	-11.863
▁electrophoresis	-11.863
▁concerns	-11.8633
▁VAP	-11.8641
NSAIDs	-11.8644
▁Hypo	-11.8644
▁Tp	-11.8648
munosuppressants	-11.865
tuổi	-11.8658
▁Ar	-11.8659
▁axial	-11.866
▁DPPH	-11.866
▁shift	-11.8663
▁clinics	-11.8663
▁PHOTO	-11.8665
▁supine	-11.8665
Echocardiography	-11.8665
▁transferred	-11.8665
▁Intervention	-11.8671
▁preserved	-11.8671
▁fail	-11.8672
▁antidepressants	-11.8673
▁hormon	-11.8679
▁plane	-11.8688
ari	-11.869
▁jugular	-11.869
Step	-11.8696
▁Lewis	-11.87
▁Hirschsprung	-11.87
▁familial	-11.87
▁personnel	-11.87
▁cerebellar	-11.87
à	-11.8702
▁tympanic	-11.8703
▁inner	-11.8709
▁TO	-11.8709
▁nhựa	-11.871
▁beats	-11.8712
▁NKBV	-11.8717
▁regulations	-11.8717
SM	-11.873
RD	-11.8735
▁volumes	-11.8735
▁Moderate	-11.8736
▁musculoskeletal	-11.8736
▁lót	-11.8736
▁nghén	-11.8736
▁hypokalemia	-11.8736
▁specialized	-11.8737
ates	-11.8737
▁PP	-11.8739
▁Hoàng	-11.8739
▁CP	-11.8742
▁try	-11.8745
▁correctly	-11.8748
▁dys	-11.8749
▁electronic	-11.8749
AIDS	-11.875
▁helping	-11.8757
fer	-11.8758
lar	-11.876
patient	-11.8763
hy	-11.8764
▁mơ	-11.8768
▁ways	-11.8769
▁Mo	-11.8769
▁penetrating	-11.8772
▁connective	-11.8772
▁recombinant	-11.8772
đối	-11.8772
▁purulent	-11.8773
▁solitary	-11.8773
PP	-11.8773
▁đớn	-11.8773
tan	-11.8774
▁femur	-11.8774
▁date	-11.8777
▁spray	-11.8778
▁beam	-11.8779
DD	-11.8783
ella	-11.8783
▁migraine	-11.8786
AP	-11.8789
using	-11.8795
methyl	-11.8804
atrioventricular	-11.8807
▁amidan	-11.8807
▁thyroiditis	-11.881
fold	-11.8812
âu	-11.8817
▁largest	-11.8818
ến	-11.8819
▁horizontal	-11.8824
▁Vu	-11.8825
▁Thuan	-11.8825
▁carrying	-11.8826
▁phenotype	-11.8827
yr	-11.8827
ĐT	-11.8834
▁Odonto	-11.8837
▁diverse	-11.8839
▁empiric	-11.884
often	-11.8841
▁DHF	-11.8841
ethylprednisolon	-11.8844
▁mandible	-11.8844
▁necrotic	-11.8844
▁nitơ	-11.8844
▁vestibular	-11.8844
▁Gan	-11.8844
▁Holter	-11.8844
▁eosinophilic	-11.8844
▁stopping	-11.8844
med	-11.8845
▁indicati	-11.886
▁HB	-11.886
▁nor	-11.8864
▁soil	-11.8865
▁ồn	-11.8866
▁seem	-11.8868
ảy	-11.887
▁Ratio	-11.8872
▁AVM	-11.8875
▁inhalation	-11.8877
▁systematic	-11.8879
▁Imipenem	-11.888
▁malaise	-11.888
▁nắp	-11.888
▁opposite	-11.888
▁Correlation	-11.888
▁cruciate	-11.888
▁naso	-11.8881
▁unlikely	-11.8881
▁ngâm	-11.8884
CBC	-11.8888
▁Real	-11.889
▁applications	-11.8894
▁parasite	-11.8897
PET	-11.8899
SC	-11.89
▁folic	-11.8907
▁massage	-11.8908
▁san	-11.8911
▁va	-11.8915
▁hemoptysis	-11.8916
▁pemphigus	-11.8916
▁validity	-11.8916
▁Detection	-11.8916
▁Natri	-11.8916
▁Anterior	-11.8917
▁standardized	-11.8918
▁nucleic	-11.8919
▁PC	-11.8925
▁NCT	-11.8926
▁Outcome	-11.8926
▁ủ	-11.8937
ham	-11.8939
ions	-11.8943
▁tone	-11.8945
LIB	-11.8946
refers	-11.8951
▁laboratories	-11.8952
▁Dermatology	-11.8953
▁arthroplasty	-11.8953
▁pathogenesis	-11.8953
▁prosthetic	-11.8953
▁intercourse	-11.8953
epidermal	-11.8956
▁diaphragm	-11.8958
▁NaCl	-11.8968
▁splenomegaly	-11.897
ible	-11.897
▁researches	-11.8978
▁collect	-11.8986
▁Fentanyl	-11.8989
▁fertilization	-11.8989
▁adulthood	-11.8989
ement	-11.8989
▁concentrated	-11.899
▁encountered	-11.8991
▁bội	-11.8993
tosis	-11.8999
▁EEG	-11.9
▁SCIEN	-11.9001
▁nú	-11.9009
din	-11.9009
▁web	-11.901
▁Tran	-11.9011
▁takes	-11.9013
cept	-11.9014
▁tick	-11.9015
▁venom	-11.9015
PM	-11.9021
▁erecti	-11.9021
▁Ma	-11.9023
▁coverage	-11.9026
▁question	-11.9026
▁uncontrolled	-11.9026
▁knew	-11.9028
▁HCO	-11.9029
▁Ro	-11.9031
dimensional	-11.9031
▁ingredients	-11.9036
lation	-11.9036
▁checked	-11.9038
▁totally	-11.9038
Hodgkin	-11.9043
ural	-11.9043
▁standing	-11.9044
genic	-11.9044
▁ppm	-11.9051
tum	-11.9056
▁cardiogenic	-11.9058
▁tolerate	-11.9059
▁random	-11.906
▁Dentistry	-11.9063
▁contraception	-11.9063
▁descending	-11.9064
▁quên	-11.9065
▁Tên	-11.9065
▁predominantly	-11.9065
▁chút	-11.9066
▁OMC	-11.907
▁keo	-11.9072
▁nấu	-11.9074
▁released	-11.9075
ricks	-11.9076
▁mode	-11.9078
way	-11.908
▁manh	-11.9081
▁parent	-11.9082
▁ve	-11.9082
VN	-11.9088
scope	-11.9093
▁ScvO	-11.9095
▁absolute	-11.9097
▁Major	-11.9099
▁Incidence	-11.91
▁lobectomy	-11.91
▁Calcium	-11.91
▁distributed	-11.9101
gây	-11.911
tương	-11.9114
▁fluconazole	-11.9114
▁cocaine	-11.9122
SP	-11.9124
tho	-11.9127
▁pull	-11.913
▁Hand	-11.9135
▁hypocalcemia	-11.9137
▁myocarditis	-11.9137
▁cortex	-11.9137
▁rồi	-11.9137
▁postmenopausal	-11.9137
ater	-11.9139
▁bundle	-11.9139
▁baby	-11.9139
ants	-11.914
▁ICH	-11.9142
▁produces	-11.9146
▁aware	-11.9156
▁thô	-11.9159
idney	-11.9163
▁loop	-11.9163
bằng	-11.9163
▁lymphô	-11.9166
Th	-11.9167
elicobacter	-11.917
▁Duy	-11.917
▁fair	-11.9172
▁Pressure	-11.9173
ogen	-11.9173
▁again	-11.9173
▁Trị	-11.9174
▁HU	-11.9174
▁oxidase	-11.9174
▁Recurrent	-11.9174
▁diffusion	-11.9174
▁Often	-11.9174
▁compress	-11.9176
▁Biên	-11.9177
▁scars	-11.9182
▁BIS	-11.9183
▁terminal	-11.9186
▁OCT	-11.9195
▁alter	-11.9196
▁exceed	-11.9201
AN	-11.9202
▁q	-11.9207
ble	-11.9207
▁benzodiazepine	-11.9211
▁Suspect	-11.9211
▁Criteria	-11.9211
▁latent	-11.9212
▁detachment	-11.9212
▁aerobic	-11.9215
▁organic	-11.9215
diaphragmatic	-11.9216
▁town	-11.9217
NP	-11.9218
VM	-11.9226
▁worker	-11.9229
low	-11.9232
▁TI	-11.9235
▁maximal	-11.9244
ầy	-11.9245
limiting	-11.9246
▁simultaneous	-11.9247
▁nhô	-11.9249
▁nitric	-11.9249
▁protease	-11.9249
▁sympathetic	-11.925
▁wire	-11.9252
▁ropivacaine	-11.9255
▁Findings	-11.9258
▁combine	-11.9258
▁cisplatin	-11.9258
▁CF	-11.9262
éo	-11.9263
▁Adults	-11.9267
▁varicella	-11.9276
organ	-11.9277
▁learn	-11.9277
▁radiographic	-11.9283
row	-11.9285
▁locations	-11.9286
▁pacemaker	-11.9287
▁Gen	-11.9288
▁Bao	-11.9295
▁chance	-11.9296
▁lymphatic	-11.9299
fluorescence	-11.9301
▁duodenum	-11.9306
TE	-11.9307
▁PO	-11.9312
inc	-11.9314
ile	-11.9319
chronic	-11.9321
point	-11.9324
ashington	-11.9324
▁Gastric	-11.9324
▁malabsorption	-11.9324
▁immobilization	-11.9324
▁microscopy	-11.9325
▁subarachnoid	-11.9325
▁BRCA	-11.9325
▁Poor	-11.9325
▁xám	-11.9326
▁sư	-11.9331
▁elements	-11.9334
▁upon	-11.9336
▁recommendation	-11.9338
▁DIC	-11.9338
▁SL	-11.934
▁places	-11.9346
RE	-11.9348
▁porphyrin	-11.9349
▁restore	-11.935
▁arthroscopic	-11.9357
▁Apgar	-11.9362
▁Nursing	-11.9362
▁relaxation	-11.9363
▁Thạch	-11.9364
Results	-11.9364
gr	-11.9366
▁CAD	-11.9368
ventricular	-11.9372
▁li	-11.9374
▁TTT	-11.9375
aged	-11.9376
▁ĐD	-11.9379
▁Ben	-11.938
rad	-11.9381
▁TMC	-11.9384
▁glomerulonephr	-11.9392
xe	-11.9394
▁fibers	-11.9394
▁speed	-11.9397
BD	-11.9398
▁appetite	-11.9401
▁povidone	-11.9401
▁Daniel	-11.9401
HS	-11.9403
▁Vater	-11.9403
▁Gó	-11.9403
▁pupil	-11.9405
▁azathioprine	-11.9405
▁hoảng	-11.9409
comp	-11.941
▁clinician	-11.9413
▁lục	-11.9414
▁obstetric	-11.9414
▁ulceration	-11.9415
▁ranh	-11.9419
▁cài	-11.9429
SF	-11.9431
thal	-11.9432
▁Sensitivity	-11.9439
▁streptococci	-11.9439
▁Killip	-11.9439
▁atrium	-11.9439
▁gửi	-11.9439
▁nêu	-11.944
▁midline	-11.944
▁drain	-11.944
▁promptly	-11.9442
▁Dạ	-11.9442
NO	-11.9444
mouth	-11.9446
▁Mã	-11.9449
▁laceration	-11.9451
▁scales	-11.9452
▁vector	-11.9453
▁brown	-11.9461
▁OT	-11.9467
▁Ga	-11.9467
▁outbreaks	-11.947
▁think	-11.9474
▁diverticulum	-11.9477
▁private	-11.9477
▁entry	-11.9477
▁PATIENTS	-11.9477
▁Another	-11.9478
▁preeclampsia	-11.9478
▁helped	-11.9478
▁chẩm	-11.9481
▁classes	-11.9482
▁chối	-11.9484
▁Aug	-11.9488
▁Lan	-11.9491
▁cultured	-11.9497
▁Asian	-11.9502
▁Li	-11.9502
RI	-11.9504
▁HOMA	-11.9505
▁PCA	-11.9511
▁Al	-11.9514
▁bradycardia	-11.9516
▁Nerve	-11.9516
▁urê	-11.9516
▁facility	-11.9516
▁agreed	-11.9518
izing	-11.9523
RF	-11.9523
NV	-11.9524
ture	-11.9527
▁error	-11.9528
lum	-11.9529
thuốc	-11.9529
▁route	-11.953
MC	-11.953
▁Chu	-11.9532
FE	-11.9534
dis	-11.9536
▁RF	-11.9543
NSAID	-11.9551
▁explore	-11.9552
▁straight	-11.9553
▁stenting	-11.9554
▁Further	-11.9554
▁glucagon	-11.9554
▁vắng	-11.9554
▁novel	-11.9555
▁Philadelphia	-11.9555
▁Ag	-11.9555
▁harmful	-11.9555
dia	-11.9555
▁homocysteine	-11.956
▁subcutaneously	-11.956
▁Preoperative	-11.956
▁ATP	-11.9562
▁progestin	-11.9564
▁exact	-11.9564
▁fe	-11.9567
▁IMT	-11.9571
▁locally	-11.9576
▁appropriately	-11.9579
▁efficient	-11.958
such	-11.9582
▁car	-11.9586
▁Temple	-11.959
sen	-11.9591
▁pulp	-11.9593
▁Asthma	-11.9593
▁Posterior	-11.9593
▁Neurology	-11.9593
▁deposition	-11.9593
▁created	-11.9597
▁Functional	-11.9598
▁sector	-11.9599
▁lymphôm	-11.9603
▁warning	-11.9603
▁Chính	-11.9605
▁ALL	-11.9608
▁tho	-11.961
led	-11.9611
wa	-11.9617
▁adjust	-11.9622
▁spasm	-11.9623
▁ACR	-11.9632
▁Metabolic	-11.9632
▁găng	-11.9632
▁erythematous	-11.9632
▁Their	-11.9634
▁accepted	-11.9635
▁khiết	-11.9636
air	-11.9636
▁drink	-11.9636
▁turn	-11.9636
▁office	-11.9641
hemoradiotherapy	-11.9641
▁Place	-11.965
▁AA	-11.9651
▁Hô	-11.9651
chủ	-11.9652
▁TAP	-11.9653
ú	-11.9665
▁Report	-11.9666
▁Tropical	-11.9671
▁evident	-11.9671
▁lavage	-11.9671
▁scoliosis	-11.9673
▁passage	-11.9673
▁Recently	-11.9674
▁round	-11.9674
▁wearing	-11.9678
▁Inter	-11.9683
▁erythrocyte	-11.9685
▁gingival	-11.9685
▁Cl	-11.9686
called	-11.9689
▁solvent	-11.9691
arm	-11.9698
▁sharp	-11.9708
▁leprosy	-11.9711
▁Esophageal	-11.9711
▁mucus	-11.9711
▁Bacterial	-11.9711
ả	-11.9712
rình	-11.9714
▁processed	-11.9714
▁influenced	-11.9718
lus	-11.9718
▁stimulate	-11.9722
▁aesthetic	-11.9724
her	-11.9728
▁drop	-11.9732
▁Má	-11.9733
segment	-11.9734
▁Fisher	-11.9737
flex	-11.9738
▁Dây	-11.9745
▁Car	-11.9746
▁behind	-11.975
▁TNM	-11.975
▁circumstances	-11.975
▁deterioration	-11.975
▁uptake	-11.9751
oxy	-11.9751
▁điền	-11.9752
▁fistulas	-11.9754
▁fibro	-11.9754
▁inclusion	-11.9759
▁odor	-11.9764
▁presents	-11.9769
mycin	-11.9773
top	-11.9774
learning	-11.9775
TNF	-11.9777
ngh	-11.9778
▁parathyroid	-11.9784
▁bầu	-11.9786
▁Aortic	-11.979
▁Chọn	-11.979
▁cắm	-11.979
▁pericarditis	-11.979
▁Cộng	-11.979
▁oncology	-11.979
▁Life	-11.979
▁strict	-11.9792
▁reveal	-11.9794
▁participated	-11.9794
▁Viên	-11.9795
▁antagonist	-11.9804
▁la	-11.9805
▁sore	-11.9807
rate	-11.9809
ka	-11.9811
BL	-11.9817
▁plantar	-11.9819
▁variations	-11.9824
▁TMT	-11.9825
▁Lipid	-11.9827
▁Kawasaki	-11.983
▁Robert	-11.983
▁Thoracic	-11.983
▁treament	-11.983
▁Khớp	-11.983
▁referral	-11.983
▁RESULTS	-11.983
▁circulatory	-11.983
▁Cutaneous	-11.983
▁displaced	-11.9831
▁Hùng	-11.9832
ày	-11.9838
controlled	-11.9839
▁demographic	-11.9841
▁Multi	-11.985
▁Pfizer	-11.9854
▁Is	-11.9858
iểm	-11.9858
▁Khí	-11.9866
▁biopsies	-11.987
▁covid	-11.987
▁hypospadias	-11.987
▁readily	-11.987
▁transurethral	-11.987
▁Aedes	-11.987
▁hydrogen	-11.987
▁suppression	-11.987
▁dextrose	-11.987
▁neural	-11.987
▁arms	-11.9871
▁Successful	-11.9873
▁exist	-11.9877
▁ĐH	-11.9878
▁reaching	-11.988
▁burning	-11.9881
van	-11.9883
CĐ	-11.9887
▁cr	-11.9887
ras	-11.9891
▁ủng	-11.9893
▁stools	-11.9893
ator	-11.9896
▁parasites	-11.9899
gave	-11.9899
▁proportions	-11.9901
▁embryos	-11.9903
▁building	-11.9906
▁gives	-11.9906
▁frailty	-11.9906
▁bloody	-11.9906
▁adenosine	-11.9907
▁manual	-11.9907
▁anthropometric	-11.991
▁matrix	-11.991
▁phấn	-11.991
▁cagA	-11.991
▁debridement	-11.991
du	-11.9913
mark	-11.9919
▁forward	-11.9923
▁partially	-11.9923
tended	-11.9927
▁Not	-11.9928
tal	-11.9933
PC	-11.9934
▁eGFR	-11.9942
▁triglycerides	-11.9944
đôi	-11.9946
▁Kimmel	-11.995
▁Vaginal	-11.995
▁moving	-11.995
▁myasthenia	-11.995
▁perinatal	-11.995
▁numbness	-11.995
▁noise	-11.9951
▁NCPAP	-11.9951
hiếm	-11.9952
termed	-11.9952
▁đếm	-11.9953
▁par	-11.996
▁situ	-11.9963
▁Sốc	-11.9964
▁discussion	-11.9965
chỉ	-11.9968
CB	-11.9972
sal	-11.9975
▁headaches	-11.9976
▁hold	-11.9979
▁urethra	-11.9984
▁IIB	-11.9989
▁Aspirin	-11.999
▁hemostasis	-11.999
▁penetration	-11.999
▁Furthermore	-11.999
▁synovial	-11.9992
▁chốt	-11.9995
▁teachers	-11.9996
oscopy	-11.9999
Gastroenterology	-12.0003
hăm	-12.0004
▁specialist	-12.0005
▁Ngh	-12.0012
▁phú	-12.0018
▁Endocrinology	-12.0019
ail	-12.0019
▁Hct	-12.0027
▁Guillain	-12.0031
▁analyzing	-12.0031
▁appendix	-12.0031
▁candidiasis	-12.0031
▁clopidogrel	-12.0031
▁ulcerative	-12.0032
▁HI	-12.0039
▁khàn	-12.004
▁illnesses	-12.0041
▁fold	-12.0042
▁amputation	-12.0046
▁CBCT	-12.0049
▁tuberculous	-12.0052
bra	-12.0053
▁vaccin	-12.0058
ALT	-12.006
phal	-12.0069
▁mồi	-12.0071
▁Abnormal	-12.0072
▁Malnutrition	-12.0072
▁Khanh	-12.0072
▁Upper	-12.0072
▁depressed	-12.0073
bony	-12.0074
cholesterol	-12.0075
của	-12.0075
GC	-12.0075
▁anaerobic	-12.0076
THA	-12.008
▁Out	-12.0081
▁CVP	-12.0082
▁rib	-12.0083
early	-12.0089
▁APRI	-12.0089
ọi	-12.009
▁xoa	-12.0094
▁continues	-12.0099
▁Or	-12.0103
▁lam	-12.0106
▁clip	-12.0107
NA	-12.0109
▁Immediate	-12.0113
▁Relative	-12.0113
▁vacA	-12.0113
▁glycoprotein	-12.0113
▁avoidance	-12.0114
▁cutoff	-12.0114
▁equally	-12.0118
▁Prof	-12.0118
seizure	-12.0119
sometimes	-12.0119
ort	-12.0119
▁valves	-12.0124
converting	-12.0124
inability	-12.0126
▁IOP	-12.0129
ret	-12.013
▁Giả	-12.0131
iãn	-12.0131
▁resource	-12.0141
▁tried	-12.0142
▁online	-12.0142
▁grow	-12.0144
▁amiđan	-12.0154
▁autism	-12.0154
▁gravis	-12.0154
▁street	-12.0154
▁hydrocephalus	-12.0154
▁eligible	-12.0155
▁friends	-12.0158
▁pathways	-12.0159
▁mửa	-12.0161
mia	-12.0164
▁remained	-12.0166
▁correlate	-12.0167
ev	-12.0169
▁collateral	-12.0169
ita	-12.0172
GM	-12.0176
▁Enterobacter	-12.0177
▁lowering	-12.0178
▁MAC	-12.018
▁IR	-12.0184
▁plain	-12.0184
▁Go	-12.0186
▁Pittsburgh	-12.0188
▁commercial	-12.0193
SAR	-12.0193
glucosidase	-12.0195
▁company	-12.0195
▁extensor	-12.0195
▁hydronephrosis	-12.0195
▁thrombus	-12.0195
▁emphysema	-12.0195
▁categories	-12.0195
▁inspection	-12.0196
▁Meckel	-12.0196
▁ngáy	-12.0196
▁redness	-12.0197
stra	-12.0199
hởi	-12.0201
▁Class	-12.0201
sea	-12.0207
▁intracerebral	-12.0209
▁maneuver	-12.021
▁effort	-12.021
▁giày	-12.0212
ika	-12.0213
▁cavernous	-12.0216
LN	-12.0232
▁partners	-12.0232
▁sizes	-12.0235
▁Insert	-12.0236
▁Preliminary	-12.0236
▁influencing	-12.0236
▁separation	-12.0236
▁undernutrition	-12.0237
▁ven	-12.0238
▁pus	-12.024
▁té	-12.0241
▁serial	-12.0242
▁Services	-12.0245
SG	-12.0245
▁quái	-12.0248
▁decisions	-12.025
▁respiration	-12.0252
▁hcm	-12.0258
▁meal	-12.0258
▁epithelium	-12.026
▁obstetrics	-12.0265
▁discuss	-12.0273
▁lymphomas	-12.0275
UI	-12.0276
▁Chemical	-12.0278
▁Between	-12.0278
▁Hepatic	-12.0278
▁Obesity	-12.0278
▁Texas	-12.0278
▁agreement	-12.0279
▁missed	-12.028
▁caesarean	-12.028
▁disruption	-12.028
▁Four	-12.0281
▁employees	-12.0281
idine	-12.0281
▁precautions	-12.0281
▁anastomotic	-12.0282
▁kiêng	-12.0283
▁seven	-12.0284
mic	-12.0287
▁pure	-12.029
▁distinct	-12.0291
▁côn	-12.0291
▁saponin	-12.0294
▁fluoroquinolone	-12.03
▁extreme	-12.03
gren	-12.0304
▁thigh	-12.0306
▁chín	-12.0308
▁suffer	-12.031
▁Sy	-12.0313
▁TIPS	-12.0314
▁perforated	-12.0316
▁prematurity	-12.032
▁taste	-12.032
▁Loss	-12.0327
▁TOF	-12.0333
▁express	-12.0334
▁alcoholic	-12.0335
▁acyclovir	-12.0335
▁motility	-12.0337
Pugh	-12.0339
▁exacerbate	-12.0339
gauge	-12.0339
▁LM	-12.034
▁HLH	-12.0343
▁tetracycline	-12.035
tel	-12.0351
▁PCOS	-12.0351
▁fascia	-12.0354
▁Pap	-12.036
▁amplification	-12.0362
▁geriatric	-12.0362
▁recognition	-12.0362
▁đăng	-12.0362
▁bronchoscopy	-12.0362
▁rhinosinusitis	-12.0362
▁THU	-12.0362
▁cystectomy	-12.0363
▁parenchymal	-12.0363
vir	-12.0364
▁attempts	-12.0364
▁trimethoprim	-12.0366
▁mIU	-12.0367
▁Nước	-12.0374
▁khóc	-12.0377
▁Main	-12.0378
▁MSCT	-12.0378
▁Bà	-12.0379
▁partner	-12.0384
idal	-12.0387
▁hormonal	-12.0389
HDL	-12.0389
GS	-12.0394
▁FT	-12.0395
▁agree	-12.0401
▁Development	-12.0401
▁transition	-12.0402
▁Late	-12.0403
▁Failure	-12.0404
▁hypogonadism	-12.0404
▁irreversible	-12.0404
tumor	-12.0404
▁mo	-12.0404
▁mesh	-12.0405
▁Duration	-12.0406
NE	-12.0407
▁delivered	-12.0407
rol	-12.0408
▁actually	-12.0408
▁Troponin	-12.0409
▁Chau	-12.041
MM	-12.0411
▁IOL	-12.0412
male	-12.0413
▁adequately	-12.0415
ised	-12.0418
▁chua	-12.0428
▁Cd	-12.0432
osa	-12.0433
▁births	-12.0436
▁assist	-12.0439
▁Rochester	-12.0446
▁Oxygen	-12.0446
▁mountainous	-12.0446
▁parallel	-12.0446
▁availability	-12.0448
▁Lưu	-12.045
▁canals	-12.0451
▁Kappa	-12.0456
▁carpal	-12.0458
ris	-12.0462
▁Effective	-12.0464
cutaneous	-12.0468
zol	-12.0469
▁necrotizing	-12.0471
▁Hong	-12.0471
▁Alcohol	-12.0478
FA	-12.0478
▁Ig	-12.048
▁Global	-12.0484
▁Urology	-12.0484
▁adenomas	-12.0486
▁passive	-12.0486
communicable	-12.0489
▁Lewy	-12.0489
▁hypertrophic	-12.0489
▁esophagectomy	-12.049
▁Feb	-12.049
▁Achilles	-12.049
▁tuyển	-12.0491
▁Thọ	-12.0492
▁supplemental	-12.0493
▁collecting	-12.0495
▁sinuses	-12.0497
nm	-12.0501
▁BCR	-12.0502
▁Then	-12.0506
▁band	-12.0507
▁limitation	-12.0507
ộ	-12.051
mRS	-12.051
▁sutures	-12.0511
▁Figure	-12.0512
ồ	-12.0515
▁kind	-12.0516
▁grades	-12.0519
▁careful	-12.0519
▁humeral	-12.0521
CLVT	-12.0522
▁agonists	-12.0528
▁Maternal	-12.0531
hipple	-12.0531
▁uncomplicated	-12.0532
UAN	-12.0533
▁KH	-12.0535
▁toạ	-12.054
▁habit	-12.0545
▁hạng	-12.0548
ko	-12.0549
ria	-12.055
wood	-12.0555
opathy	-12.0561
soluble	-12.0565
analysis	-12.0566
▁prescribing	-12.0567
▁blocks	-12.057
▁suicidal	-12.0572
▁Florida	-12.0574
▁Injuries	-12.0574
▁TREATMENT	-12.0574
▁variability	-12.0574
▁nhọn	-12.0574
▁gently	-12.0574
▁ốm	-12.0575
▁bedside	-12.0575
▁mimic	-12.0576
▁parasitic	-12.0576
▁angioplasty	-12.0576
za	-12.0577
cut	-12.058
ớn	-12.058
▁synthetic	-12.0582
▁prescriptions	-12.0582
▁Giáo	-12.0582
▁quán	-12.0585
▁filter	-12.0587
▁cephalosporins	-12.06
my	-12.0609
▁hung	-12.061
high	-12.0611
limited	-12.0611
▁compromise	-12.0615
▁Pregnan	-12.0617
mmunosuppression	-12.0617
▁associations	-12.0617
▁radiofrequency	-12.0617
▁Open	-12.0618
▁bơi	-12.0622
▁Hen	-12.0624
▁Iron	-12.0624
ì	-12.0624
▁hoạ	-12.0626
▁hưng	-12.0626
▁CR	-12.0629
▁gallstones	-12.063
▁OSA	-12.0632
▁bag	-12.0637
▁nguyen	-12.064
▁uncertain	-12.0641
▁trisomy	-12.0644
ura	-12.0653
▁transfusions	-12.0654
▁ask	-12.0655
▁ratios	-12.0657
▁Noi	-12.0658
▁RR	-12.0658
▁ataxia	-12.066
▁Rapid	-12.0661
▁chills	-12.0666
sulfamethoxazole	-12.0667
aw	-12.0667
▁auditory	-12.0667
▁oropharyngeal	-12.0668
▁Ceftriaxone	-12.0674
ban	-12.0681
á	-12.0682
▁CAP	-12.0684
ves	-12.0689
▁hCG	-12.0689
▁xà	-12.069
therapy	-12.0697
▁lát	-12.0699
▁cortical	-12.0701
▁Large	-12.0701
enhanced	-12.0703
▁Various	-12.0704
▁Grand	-12.0704
▁Social	-12.0704
▁advised	-12.0705
▁cuộn	-12.0705
▁Sepsis	-12.0706
▁broncho	-12.0707
▁fourth	-12.0709
▁trám	-12.0709
des	-12.0709
HPV	-12.071
▁pressures	-12.0714
▁nodal	-12.0715
▁believe	-12.0716
ound	-12.0717
▁titers	-12.0718
▁vương	-12.0719
sk	-12.0722
▁Cổ	-12.0724
▁antagonists	-12.0732
▁ran	-12.0733
▁trâm	-12.0738
▁cast	-12.0739
▁Investigating	-12.0747
▁adhesive	-12.0747
▁isotretinoin	-12.0747
▁uveitis	-12.0747
▁rotator	-12.0748
kept	-12.0748
▁antiplatelet	-12.0748
▁phospholipid	-12.0748
ins	-12.0748
▁professionals	-12.075
PLA	-12.075
GĐ	-12.0751
ớc	-12.0757
▁acetyl	-12.0764
▁UI	-12.0771
TSH	-12.0772
LP	-12.0772
▁Africa	-12.0774
▁Lee	-12.0775
ix	-12.0777
▁nai	-12.0782
▁CB	-12.0783
▁dermal	-12.0786
▁urinalysis	-12.0791
▁ABI	-12.0792
▁DC	-12.0792
▁Vùng	-12.0793
▁lasts	-12.0795
surgery	-12.0796
put	-12.0802
▁describes	-12.0813
▁NKH	-12.0816
▁expansion	-12.0818
cholinesterase	-12.082
▁phaco	-12.0823
SGA	-12.0829
MD	-12.0829
RP	-12.083
▁conjunctival	-12.0832
▁thorough	-12.0833
▁pemphigoid	-12.0835
▁utilization	-12.0835
▁lều	-12.0836
▁Hưng	-12.0837
▁Nowadays	-12.0837
▁Su	-12.0837
▁ADR	-12.0839
▁Paul	-12.0841
▁Sj	-12.0842
▁advantage	-12.0853
▁pmol	-12.0854
▁pork	-12.0855
ị	-12.0857
▁Tốt	-12.0858
▁lau	-12.0859
▁resting	-12.0862
▁Poly	-12.0863
▁drops	-12.0865
▁SV	-12.0868
▁dynamic	-12.0868
▁GCS	-12.0869
▁thụt	-12.087
▁want	-12.0872
▁Side	-12.0873
▁annual	-12.0877
SLE	-12.0877
▁Cung	-12.0879
▁Investigate	-12.0879
▁elimination	-12.0879
▁phenomenon	-12.0879
▁scoring	-12.0879
▁tamponade	-12.0879
▁eosinophilia	-12.088
▁sùi	-12.0881
▁Tinh	-12.0882
▁inch	-12.0885
nes	-12.089
▁sweat	-12.0892
phenyl	-12.0893
▁ten	-12.0904
▁Sch	-12.0909
otoxin	-12.0911
▁surveyed	-12.0914
▁Val	-12.0915
oxa	-12.0915
years	-12.0917
▁vitamins	-12.0922
▁keratitis	-12.0924
▁ngọt	-12.0924
▁nocturnal	-12.0924
▁displacement	-12.0924
▁Allergic	-12.0924
▁Shoulder	-12.0925
▁Loét	-12.0925
▁eczema	-12.0931
▁vertebrae	-12.0931
▁tiễn	-12.0933
▁quét	-12.0934
TĐ	-12.0935
▁PM	-12.0937
defined	-12.0938
▁Thuy	-12.0942
▁modification	-12.0942
▁Lymphoma	-12.0942
ohns	-12.0944
▁postop	-12.0947
rian	-12.095
▁LDH	-12.0952
▁lasting	-12.0953
rod	-12.0954
itral	-12.0957
▁scans	-12.0961
▁Catheter	-12.0961
▁build	-12.0963
▁Neurologic	-12.0965
▁Mụ	-12.0965
▁nodular	-12.0966
▁Mật	-12.0968
▁Significant	-12.0968
▁ketamine	-12.0968
▁Alternatively	-12.0969
▁weaning	-12.097
▁reality	-12.097
▁Monitoring	-12.097
arrow	-12.0974
▁hematologic	-12.0974
▁CPR	-12.0976
lam	-12.0976
▁structured	-12.0979
triglyceridemia	-12.0981
▁PSD	-12.0982
▁voluntary	-12.0985
▁kề	-12.0988
tus	-12.0988
ải	-12.0989
▁silicone	-12.0993
▁diagnoses	-12.0997
▁adhere	-12.1001
▁Mal	-12.1003
▁CV	-12.1012
▁Recommendations	-12.1013
▁agitation	-12.1013
▁gynecology	-12.1013
▁neoformans	-12.1013
▁mobile	-12.1013
▁Green	-12.1013
▁sitting	-12.1013
▁microbiological	-12.1015
print	-12.1016
▁ISO	-12.1019
▁HE	-12.1021
▁reactive	-12.1022
lamp	-12.1022
▁flat	-12.1024
histochemical	-12.1025
▁concerned	-12.1029
▁Bilirubin	-12.1033
▁agonist	-12.1034
▁correlations	-12.1034
HN	-12.1038
▁Cox	-12.1047
▁Dental	-12.1057
▁represents	-12.1057
flow	-12.1058
▁context	-12.1058
▁depletion	-12.1058
▁promising	-12.1058
▁sheath	-12.1058
▁Airway	-12.1058
▁introduced	-12.106
▁Khánh	-12.106
▁slight	-12.1062
▁VTC	-12.1065
▁relieved	-12.1066
KT	-12.1067
gram	-12.1068
ier	-12.1073
AA	-12.1078
▁Ab	-12.1086
reserved	-12.1089
▁haemorrhage	-12.1098
▁convenient	-12.1101
▁IVF	-12.1101
▁parotid	-12.1103
▁challenging	-12.1103
▁gadolinium	-12.1103
▁palpated	-12.1104
▁cumulative	-12.1104
▁absorbed	-12.1105
▁resin	-12.1106
▁pin	-12.1107
▁placental	-12.111
▁Mang	-12.1111
▁Dao	-12.1112
▁Methotrexate	-12.1113
▁Students	-12.1115
VE	-12.1117
▁bênh	-12.1117
▁Hoang	-12.1119
▁Polyp	-12.1119
▁Visual	-12.1124
▁Enterococcus	-12.1132
ography	-12.1133
▁ti	-12.1133
▁Cố	-12.1133
▁gl	-12.1134
▁dại	-12.1143
▁khôn	-12.1143
▁TMP	-12.1147
▁extubation	-12.1147
▁Immunization	-12.1149
Stomatology	-12.1149
▁Ankle	-12.1149
▁participation	-12.1149
▁splenectomy	-12.1149
▁creating	-12.1149
▁crisis	-12.1149
▁điếc	-12.115
ili	-12.1151
ding	-12.1153
▁academic	-12.1153
▁cholangio	-12.1155
As	-12.1165
▁sông	-12.1166
▁blast	-12.1166
ult	-12.1167
▁Statistical	-12.1168
điểm	-12.1178
▁lú	-12.1179
long	-12.1179
lip	-12.1182
▁AL	-12.1184
uyết	-12.1189
▁Neisseria	-12.1194
▁Năng	-12.1194
▁albendazole	-12.1194
▁bronchiolitis	-12.1194
▁gonorrhoeae	-12.1194
▁sấy	-12.1194
▁trấn	-12.1194
plasty	-12.1194
▁stratification	-12.1194
Barré	-12.1194
▁intracellular	-12.1194
▁Soi	-12.1195
▁Sexual	-12.12
▁ascending	-12.1201
▁diuretic	-12.1204
▁decades	-12.1208
ATION	-12.1208
▁com	-12.121
KS	-12.1212
▁tumour	-12.1214
▁Cam	-12.1214
▁database	-12.1215
▁targets	-12.1216
▁Thua	-12.1217
allowing	-12.1221
▁PV	-12.1226
ral	-12.1236
▁trachea	-12.1239
▁FISH	-12.1239
▁Foreign	-12.124
▁motivation	-12.124
▁sáu	-12.124
▁vuông	-12.124
▁apex	-12.124
▁monotherapy	-12.124
▁globin	-12.124
▁Location	-12.1241
▁itraconazole	-12.1244
LD	-12.1244
▁MCV	-12.1246
▁TTL	-12.1248
▁Mổ	-12.1248
▁lương	-12.1251
▁skill	-12.1254
OD	-12.1255
▁IVIG	-12.1265
▁norepinephrine	-12.1265
▁amyloid	-12.1267
▁FOR	-12.1274
mmHg	-12.1275
▁sta	-12.1279
▁neo	-12.1282
▁deficient	-12.1283
ind	-12.1284
▁Death	-12.1286
▁Nấm	-12.1286
▁Rubella	-12.1286
▁bronchiectasis	-12.1286
▁Khmer	-12.1286
▁GOLD	-12.1287
▁clothing	-12.1287
▁heard	-12.1287
▁psoriatic	-12.1287
▁diminished	-12.1288
▁ambulatory	-12.129
▁cured	-12.1297
▁loading	-12.1299
▁CBD	-12.1299
▁amiodarone	-12.13
ôm	-12.1303
SN	-12.1304
▁impacted	-12.1306
▁Benign	-12.131
▁plans	-12.1316
▁adolescence	-12.1316
▁fl	-12.1329
▁Recent	-12.133
▁substantial	-12.1331
▁Committee	-12.1332
▁Harvard	-12.1332
▁gastroenteritis	-12.1332
▁blindness	-12.1332
▁pyelonephritis	-12.1333
▁giấu	-12.1333
▁autoantibodies	-12.1335
▁Role	-12.1344
▁linked	-12.1345
▁preoperatively	-12.1345
opathies	-12.1347
▁knees	-12.1349
▁regulate	-12.1351
▁probiotic	-12.1353
▁Tú	-12.1361
▁Kiên	-12.1363
HC	-12.1364
▁Niệu	-12.1367
▁VL	-12.1368
fo	-12.137
▁Bu	-12.1371
▁tibia	-12.1372
▁Europe	-12.1377
terian	-12.1378
▁irritability	-12.1379
▁Identification	-12.1379
▁dystrophy	-12.1379
▁refractive	-12.138
▁coordination	-12.138
▁jirovecii	-12.138
▁desired	-12.1381
▁đốm	-12.1383
▁serve	-12.1386
ithin	-12.1386
▁here	-12.1389
▁prevented	-12.1397
ula	-12.14
CP	-12.1407
▁didn	-12.1411
▁implement	-12.1415
▁Kon	-12.1415
nhiễm	-12.1424
achieving	-12.1425
▁astigmatism	-12.1425
▁cholestasis	-12.1425
▁expensive	-12.1425
▁lethargy	-12.1425
▁macrophages	-12.1426
▁contraceptives	-12.1427
▁Thương	-12.1427
▁Reserve	-12.1429
oplasty	-12.143
ans	-12.143
▁kia	-12.1434
▁supports	-12.1438
▁GGT	-12.1443
Table	-12.1447
▁rheumatic	-12.1447
▁varying	-12.1449
▁IA	-12.1457
▁IGF	-12.1458
MN	-12.146
▁Hy	-12.1462
▁painless	-12.1463
▁Ac	-12.1465
▁saliva	-12.1472
▁Framingham	-12.1472
▁Routine	-12.1472
▁Smoking	-12.1472
▁linezolid	-12.1472
▁thăng	-12.1472
▁vertigo	-12.1472
▁window	-12.1472
▁anh	-12.1472
▁toxicities	-12.1473
vitro	-12.1474
▁fields	-12.1475
▁phết	-12.1477
▁gh	-12.1478
▁passed	-12.1478
▁enhanced	-12.1479
▁Adolescents	-12.1479
ger	-12.148
▁EC	-12.1481
AU	-12.1481
▁CRT	-12.1483
rap	-12.1486
▁heal	-12.1487
▁BCL	-12.1492
▁SS	-12.1494
net	-12.1495
▁Cà	-12.1498
▁attached	-12.1499
icular	-12.1502
▁cytotoxic	-12.1519
▁Computed	-12.1519
▁Headache	-12.1519
▁Response	-12.1519
▁Training	-12.1519
▁xốp	-12.1519
▁Atrial	-12.152
▁Phì	-12.1524
▁HRV	-12.1524
▁Tiệp	-12.1525
▁institute	-12.1525
▁rec	-12.1526
lần	-12.1528
▁Hill	-12.1529
lat	-12.1534
ock	-12.1535
▁cardio	-12.1539
nce	-12.1539
▁indicator	-12.1541
▁suppress	-12.1546
▁formed	-12.1547
▁BUN	-12.1549
▁PAP	-12.1552
▁def	-12.1562
▁desire	-12.1564
▁luồn	-12.1564
▁Kaposi	-12.1567
▁Malignan	-12.1567
▁allergies	-12.1567
▁sẩy	-12.1567
▁virtual	-12.1567
illebrand	-12.1567
▁bullous	-12.1567
▁orientation	-12.1567
▁postnatal	-12.1567
▁Viral	-12.1567
▁transformation	-12.1567
▁levothyroxine	-12.1568
▁rát	-12.1569
▁Immuno	-12.1569
▁Sơ	-12.1571
▁hallucinations	-12.1571
▁khát	-12.1573
IG	-12.1577
▁complexes	-12.1577
▁firm	-12.1578
▁sigmoid	-12.1579
▁fit	-12.158
▁Cr	-12.1581
▁infarct	-12.1582
▁Standard	-12.1584
lia	-12.16
▁losses	-12.1601
▁tơ	-12.1605
ftercare	-12.1606
▁initiated	-12.1611
loss	-12.1613
▁bốc	-12.1614
▁BRAF	-12.1614
▁Reduction	-12.1614
DE	-12.1615
▁dependence	-12.1616
▁Br	-12.1621
▁DI	-12.1622
HI	-12.1624
chemical	-12.1627
trans	-12.1632
ave	-12.1632
▁allergens	-12.1634
▁barrier	-12.1636
▁documents	-12.1637
▁gauge	-12.164
▁carbapenemase	-12.1645
oscopic	-12.165
▁tôn	-12.1652
shortness	-12.1655
▁proportional	-12.1655
▁preserve	-12.1659
▁Swiss	-12.166
▁deltoid	-12.1662
▁financial	-12.1662
▁meconium	-12.1662
▁unexpected	-12.1662
▁communities	-12.1662
▁curative	-12.1662
▁background	-12.1662
▁capable	-12.1662
▁mediastinum	-12.1662
▁lipase	-12.1662
▁phiền	-12.1662
▁Focal	-12.1663
TA	-12.1663
▁LD	-12.1664
▁vaginalis	-12.1666
▁exclusion	-12.1668
▁exam	-12.1669
▁thoracotomy	-12.167
omas	-12.167
pylori	-12.1676
▁classical	-12.1676
▁aspartate	-12.1678
▁glycol	-12.1678
HCV	-12.1679
HIV	-12.1681
lot	-12.1684
▁Lồ	-12.1687
▁waiting	-12.1689
▁Acc	-12.169
contraindication	-12.1702
▁address	-12.1709
▁Avoid	-12.1709
▁Charles	-12.171
▁Ebola	-12.171
▁osmotic	-12.171
sparing	-12.171
▁varied	-12.171
▁radioactive	-12.171
▁sickness	-12.171
▁Trưng	-12.171
▁unique	-12.1711
▁dentin	-12.1712
▁overlap	-12.1712
▁subclavian	-12.1712
▁encouraged	-12.1712
ME	-12.1713
▁atherosclerotic	-12.1714
▁levobupivacaine	-12.1715
dd	-12.1715
▁childrens	-12.1721
site	-12.1724
▁ingested	-12.1729
MH	-12.173
lon	-12.1731
▁stations	-12.1731
▁panel	-12.1732
▁CTA	-12.1733
HF	-12.1734
í	-12.1744
▁ACS	-12.1746
▁repaired	-12.1747
▁Ciprofloxacin	-12.1758
▁Hemophilia	-12.1758
▁ligation	-12.1758
▁Rectal	-12.1758
▁Chuẩn	-12.1758
▁subtle	-12.1759
▁rơi	-12.176
GB	-12.1761
▁phiện	-12.1762
▁Lak	-12.1763
▁ù	-12.1764
▁hydroxy	-12.1766
▁policy	-12.1774
▁seriously	-12.1781
▁combinations	-12.1791
▁Comments	-12.1803
...)	-12.1804
▁collapse	-12.1804
▁hoarseness	-12.1807
▁larynx	-12.1807
▁pollution	-12.1807
▁Multivariate	-12.1807
▁Fluid	-12.1807
▁Measurement	-12.1808
▁lactat	-12.1808
▁annually	-12.1809
▁focuses	-12.181
▁separated	-12.181
▁atrophic	-12.1816
▁rigid	-12.1818
▁APC	-12.1821
▁tree	-12.1822
fat	-12.1825
▁FDG	-12.1826
ợ	-12.1826
▁bar	-12.1829
▁leave	-12.1829
bowel	-12.183
▁ADH	-12.1831
▁nhị	-12.1831
▁neu	-12.1838
▁hydrocortisone	-12.184
▁topic	-12.1845
NN	-12.1847
▁gray	-12.1851
▁Hopkins	-12.1855
▁Northern	-12.1855
▁bevacizumab	-12.1855
▁vesicles	-12.1855
▁grading	-12.1855
▁scrotal	-12.1856
▁gloves	-12.1856
▁quị	-12.1856
▁consumed	-12.1856
▁ultimately	-12.1857
▁elastic	-12.1859
▁bu	-12.186
▁Diễn	-12.1861
▁cổng	-12.1861
DV	-12.1862
▁Applying	-12.1863
▁hematological	-12.1865
▁cleaning	-12.1867
▁Bạ	-12.187
land	-12.187
▁tables	-12.1871
▁falling	-12.1871
▁gut	-12.1874
▁sea	-12.1883
▁ACL	-12.1884
rel	-12.1886
RO	-12.189
▁hương	-12.1891
▁UTBM	-12.1893
▁insert	-12.1893
▁aminoglycoside	-12.1896
▁analytical	-12.1897
▁Give	-12.1898
▁ii	-12.1902
▁Possibl	-12.1904
▁Prolonged	-12.1904
▁unsuccessful	-12.1904
▁composed	-12.1905
▁xì	-12.1906
▁KRAS	-12.1907
▁microorganisms	-12.1912
▁understood	-12.1912
HTH	-12.1919
▁sec	-12.1926
▁nipple	-12.1927
▁deletion	-12.1927
CTC	-12.1929
diabetes	-12.1933
har	-12.1934
thickness	-12.1934
HPLC	-12.1934
▁Outcomes	-12.1939
Hb	-12.1941
face	-12.1944
▁tendons	-12.1944
▁DFS	-12.1945
▁rats	-12.1949
ĐMV	-12.1951
▁FNA	-12.1951
▁flu	-12.1951
▁Rehabilitation	-12.1953
▁expectancy	-12.1953
▁monoxide	-12.1953
▁swollen	-12.1953
▁opportunistic	-12.1953
▁cười	-12.1954
▁contralateral	-12.1954
▁amplitude	-12.1956
VT	-12.1956
▁warts	-12.1959
▁tàng	-12.196
▁pairs	-12.1964
▁ears	-12.1965
▁Gene	-12.1965
car	-12.1967
▁cis	-12.1973
antihypertensive	-12.1975
lis	-12.1976
▁prostaglandin	-12.1977
▁Hormone	-12.1981
▁lộn	-12.1984
aids	-12.1988
▁neuralgia	-12.2003
▁Code	-12.2003
▁stored	-12.2003
▁fibrous	-12.2004
▁concluded	-12.2004
▁Mechanical	-12.2004
▁mastectomy	-12.2004
▁nàn	-12.2005
▁stromal	-12.2005
some	-12.2007
▁tang	-12.201
▁Tài	-12.2011
AO	-12.2011
▁purposes	-12.2011
nat	-12.2021
▁concerning	-12.2025
fu	-12.2027
▁etc	-12.2027
azole	-12.203
RL	-12.2032
▁var	-12.2035
▁prospectively	-12.2036
▁Cha	-12.2038
▁Extra	-12.2042
ica	-12.2042
ỉ	-12.2049
▁exertion	-12.2049
▁lươn	-12.205
▁crucial	-12.2052
▁dystonia	-12.2052
▁faecalis	-12.2052
▁hepatomegaly	-12.2052
▁socket	-12.2052
▁kiệm	-12.2052
▁kén	-12.2052
ời	-12.2054
▁ngầm	-12.2054
▁tinnitus	-12.2054
▁maturation	-12.2054
apan	-12.2056
▁LASIK	-12.2056
▁knife	-12.2057
▁Carcinoma	-12.2057
▁bầm	-12.2058
▁courses	-12.2058
▁symtoms	-12.2058
▁adding	-12.2058
▁forceps	-12.2062
▁contributed	-12.2065
▁allowed	-12.2065
▁raised	-12.2067
▁pharmacists	-12.2068
Comparing	-12.2069
▁add	-12.2069
▁vera	-12.2071
▁cluster	-12.2076
▁recipient	-12.2077
borne	-12.2077
ze	-12.208
PCI	-12.2081
▁esophagitis	-12.2084
▁Po	-12.2089
▁neutrophils	-12.2092
▁ANA	-12.2096
uoc	-12.2097
▁Kh	-12.2098
▁presentations	-12.21
▁AHA	-12.2101
▁sarcoid	-12.2102
▁malnourished	-12.2102
▁internet	-12.2103
▁blockade	-12.2103
▁palpation	-12.2104
▁loa	-12.2105
In	-12.2106
▁chàm	-12.2108
▁Identifying	-12.2111
▁suddenly	-12.2112
▁Examine	-12.2112
▁Cuố	-12.2116
▁cefotaxime	-12.2118
▁break	-12.212
cular	-12.2122
▁worms	-12.2123
▁MEN	-12.2125
mes	-12.2125
▁ASD	-12.2129
▁von	-12.2137
▁Phan	-12.2138
▁CHD	-12.2141
▁sphenoid	-12.2144
MRSA	-12.2146
▁Blatchford	-12.2146
▁socio	-12.2147
▁pcr	-12.215
▁gradual	-12.215
▁Persistent	-12.2152
▁antitrypsin	-12.2152
▁Arterial	-12.2152
▁why	-12.2153
▁ortho	-12.2153
▁prealbumin	-12.2153
▁penetrate	-12.2153
▁sure	-12.2153
▁consensus	-12.2155
ery	-12.2158
▁ligaments	-12.216
ries	-12.2164
locking	-12.2166
▁infect	-12.2166
▁dâm	-12.2168
▁improvements	-12.2169
▁perineal	-12.2172
▁explain	-12.2172
▁herbs	-12.2174
▁Idiopathic	-12.2175
▁phases	-12.2175
ôi	-12.2176
more	-12.2177
▁amylase	-12.2179
ki	-12.2185
AKI	-12.2187
▁feelings	-12.219
▁lose	-12.2191
khi	-12.2202
▁osmolality	-12.2203
▁nasogastric	-12.2203
▁Addison	-12.2203
▁subdural	-12.2203
▁Manual	-12.2203
▁FMD	-12.2205
▁hiệp	-12.2205
ency	-12.2205
▁anomaly	-12.2206
▁khái	-12.2208
▁None	-12.2208
▁Pb	-12.2208
▁subjective	-12.221
▁ct	-12.2211
▁nuclear	-12.2218
▁glass	-12.2219
open	-12.2219
▁eosinophils	-12.2222
xa	-12.2223
▁legal	-12.2228
▁clo	-12.2233
▁IIIB	-12.2237
ứa	-12.2238
▁MMP	-12.2244
▁Anxiety	-12.2254
▁Black	-12.2254
▁Brugada	-12.2254
▁Muscle	-12.2254
▁choosing	-12.2254
▁dissolution	-12.2254
▁felt	-12.2254
▁intussusception	-12.2254
▁juice	-12.2254
▁quantification	-12.2254
▁Nghiệm	-12.2254
▁Combination	-12.2254
▁sedimentation	-12.2254
▁multidrug	-12.2254
▁Canxi	-12.2254
▁gù	-12.2255
▁xê	-12.2256
▁palmar	-12.2259
▁overdose	-12.2262
▁tệ	-12.2263
▁couples	-12.2269
giai	-12.2272
▁sedative	-12.2278
▁experiment	-12.2282
▁belong	-12.2287
spec	-12.2288
▁potent	-12.2288
axis	-12.2294
▁contractions	-12.2298
▁Clostridium	-12.2304
▁atelectasis	-12.2304
▁mặn	-12.2304
▁Centre	-12.2304
▁lactose	-12.2305
▁decay	-12.2305
▁lymphoblastic	-12.2305
▁Sanger	-12.2305
▁nòng	-12.2305
▁khứu	-12.2306
▁bedtime	-12.2306
bearing	-12.2307
năm	-12.2308
▁camera	-12.2308
▁VMD	-12.2309
▁Hashimoto	-12.2309
ASC	-12.2316
▁alfa	-12.2322
▁nhịn	-12.2323
▁detail	-12.2325
▁meningioma	-12.233
▁practitioner	-12.233
▁carrier	-12.2332
▁Endo	-12.2334
IO	-12.2334
▁suspect	-12.2337
sch	-12.2337
Ab	-12.2345
ded	-12.2351
▁optimize	-12.2353
▁cas	-12.2355
▁Amoxicillin	-12.2356
▁Anesthesia	-12.2356
▁Toxocara	-12.2356
▁division	-12.2357
▁assistance	-12.2358
acupuncture	-12.2362
▁UTBMTBG	-12.2363
▁antihistamines	-12.2363
▁nhuận	-12.2365
vessel	-12.2366
▁disadvantages	-12.2367
▁candidates	-12.2369
▁NAAT	-12.2371
AI	-12.2379
AD	-12.2381
êu	-12.2383
▁house	-12.2384
▁lít	-12.239
▁intrinsic	-12.2399
▁Giữ	-12.24
▁emboli	-12.24
▁fruits	-12.2403
▁Elevated	-12.2407
▁Exercise	-12.2407
▁turbinate	-12.2407
▁Circular	-12.2407
▁Paget	-12.2407
ProBNP	-12.2407
▁antiretroviral	-12.2407
▁pharyngitis	-12.2407
▁Survival	-12.2408
onia	-12.2408
▁heme	-12.2408
▁chườm	-12.2409
▁cooking	-12.2409
▁mộng	-12.2411
▁confirmation	-12.2412
MIC	-12.2412
▁rít	-12.2413
accounting	-12.2417
hypophosphatemia	-12.2423
cis	-12.2423
▁đô	-12.2424
▁fragments	-12.2428
▁pen	-12.2432
FS	-12.2434
king	-12.2434
Ca	-12.2437
▁DR	-12.2437
▁occupied	-12.2441
▁smell	-12.2448
▁deliver	-12.2448
ửa	-12.2454
SH	-12.2456
▁Atlantic	-12.2459
▁Target	-12.2459
▁genitourinary	-12.2459
▁policies	-12.2459
▁sufentanil	-12.2459
▁thrombectomy	-12.2459
▁vulnerable	-12.2459
▁vốn	-12.2459
▁Molecular	-12.2459
▁ovulation	-12.2459
▁Lichen	-12.2459
▁duplication	-12.2459
▁Gestational	-12.2459
▁tủa	-12.2462
▁sụp	-12.2462
▁porphyria	-12.2463
toxic	-12.2472
Thalassemia	-12.2472
điều	-12.2473
▁contained	-12.2473
▁returned	-12.2474
psi	-12.248
▁TV	-12.2481
oon	-12.2483
hãng	-12.2489
hứa	-12.249
▁MDCT	-12.2494
▁IBS	-12.2495
▁ARB	-12.2506
ema	-12.2506
▁bn	-12.2507
▁calculate	-12.2509
▁Michigan	-12.2511
▁Pathology	-12.2511
▁Thach	-12.2511
▁cholesteatoma	-12.2511
▁hydroxide	-12.2511
▁myocardium	-12.2511
▁oximetry	-12.2511
▁restricted	-12.2513
▁bright	-12.2513
formerly	-12.2514
▁KT	-12.2516
▁sports	-12.2517
▁bồn	-12.252
▁prepare	-12.252
gia	-12.2522
▁daytime	-12.2523
▁ARFI	-12.2527
▁nutrients	-12.2528
bảng	-12.2528
▁infiltrates	-12.2528
▁sleeping	-12.2529
▁analyse	-12.2535
tomy	-12.2535
ulation	-12.254
▁Hành	-12.2542
▁Nhà	-12.2546
▁folds	-12.2547
▁benzodiazepines	-12.2548
▁SE	-12.2549
BE	-12.2552
ọ	-12.2552
ean	-12.2554
▁Psoriasis	-12.2554
▁Mc	-12.2557
▁máng	-12.2559
hitney	-12.2563
▁Growth	-12.2563
▁aegypti	-12.2563
▁fertility	-12.2563
▁ibuprofen	-12.2563
▁MSDs	-12.2563
▁Denis	-12.2563
▁lips	-12.2568
▁BMD	-12.2569
tỉ	-12.2574
var	-12.2575
ons	-12.2584
ade	-12.2585
▁infective	-12.2588
▁Associated	-12.2589
▁State	-12.2591
▁recommends	-12.2594
ash	-12.2606
▁NLR	-12.2608
▁Typical	-12.2613
▁Mycobacterium	-12.2614
▁tetanus	-12.2614
▁quick	-12.2614
olog	-12.2615
▁infancy	-12.2616
▁principal	-12.2616
▁prostatectomy	-12.2616
▁STUD	-12.2616
▁hãi	-12.2616
▁feces	-12.2616
▁Vaccination	-12.2616
▁perceived	-12.2617
▁cerebrovascular	-12.2617
▁lymphocytic	-12.2618
▁protocols	-12.2618
▁Overweight	-12.2619
▁assistant	-12.262
ital	-12.2621
▁cramps	-12.2623
CCP	-12.2623
▁hernias	-12.2623
SA	-12.2628
days	-12.2629
had	-12.263
▁Presby	-12.2633
head	-12.2633
RNA	-12.2633
ui	-12.265
▁Mau	-12.2652
▁negatively	-12.2653
▁nơ	-12.2657
▁calo	-12.2658
▁hemorrhages	-12.2665
▁precise	-12.2666
HbA	-12.2668
▁Diabetic	-12.2668
▁MTHFR	-12.2668
▁Raynaud	-12.2668
▁Severity	-12.2668
▁arousal	-12.2668
▁đặn	-12.2668
▁lãnh	-12.2668
▁Delta	-12.2668
▁VietPOS	-12.2668
▁comparative	-12.2669
▁preschool	-12.2669
▁giết	-12.267
▁Đị	-12.2672
▁Radi	-12.2672
scan	-12.2673
▁industrial	-12.2674
▁echo	-12.2675
▁Mini	-12.2678
▁infra	-12.2678
▁Toàn	-12.2679
▁Cor	-12.268
▁myelo	-12.2681
▁cool	-12.2684
▁KI	-12.2684
was	-12.2691
▁cutting	-12.2692
▁perhaps	-12.2698
oduodenectomy	-12.2702
▁addiction	-12.2702
▁Colon	-12.2703
apo	-12.2707
▁weigh	-12.2708
ker	-12.2709
▁PFS	-12.271
EL	-12.2712
really	-12.2712
ico	-12.2713
▁mosquito	-12.272
▁Mass	-12.272
▁Cerebral	-12.2721
▁Schmidt	-12.2721
▁ivermectin	-12.2721
▁Video	-12.2721
▁amip	-12.2722
▁fluorescein	-12.2722
▁TDF	-12.2722
▁Similarly	-12.2723
▁lenses	-12.2724
Pert	-12.2727
▁Hạn	-12.2729
▁challenges	-12.273
▁chử	-12.2731
▁mentioned	-12.2734
▁quầng	-12.2734
▁marginal	-12.2736
▁lầm	-12.2736
AF	-12.2737
▁Creatinine	-12.2737
▁diphtheria	-12.2739
▁Pr	-12.2739
win	-12.2744
▁TLT	-12.2746
SDD	-12.2747
▁connection	-12.275
▁Thất	-12.2752
FDA	-12.2753
binding	-12.2753
▁dual	-12.2753
LS	-12.2756
▁Fe	-12.2758
Ph	-12.2761
▁Vô	-12.2763
▁Dose	-12.2767
ious	-12.2767
▁dried	-12.2769
GR	-12.2771
OM	-12.2774
▁Nov	-12.2775
▁ophthalmologist	-12.2775
▁placing	-12.2775
▁pneumonitis	-12.2775
▁tấy	-12.2775
▁allopurinol	-12.2775
▁Status	-12.2775
▁endometriosis	-12.2775
▁Venous	-12.2775
▁psychosis	-12.2775
▁semen	-12.2775
▁reperfusion	-12.2775
▁seafarers	-12.2776
▁sought	-12.2777
BB	-12.2777
▁VK	-12.2777
▁res	-12.2778
▁offered	-12.2779
▁Linh	-12.2782
▁deeper	-12.2782
also	-12.2785
HBV	-12.2791
▁hyperkalemia	-12.2794
ood	-12.2806
▁pharmacological	-12.2806
▁Lip	-12.2808
examination	-12.281
đường	-12.281
eck	-12.2816
RAS	-12.2817
median	-12.2821
DSM	-12.2825
▁ground	-12.2826
▁bearing	-12.2828
▁Immune	-12.2828
▁lithium	-12.2828
▁nephrolithotomy	-12.2828
▁simply	-12.2828
case	-12.2828
▁hypoglycemic	-12.2829
▁chewing	-12.2829
▁Onset	-12.2829
UL	-12.2829
▁ghế	-12.2829
▁talc	-12.283
▁arginine	-12.2831
cơ	-12.2834
▁xước	-12.2836
▁kitchens	-12.2846
▁principles	-12.2849
▁cigarette	-12.2857
ohn	-12.2857
RV	-12.2859
▁eliminate	-12.286
cancer	-12.2866
adrenergic	-12.2868
IgG	-12.2868
▁Vò	-12.287
thay	-12.2873
base	-12.2875
▁UTV	-12.2877
▁đai	-12.288
▁survive	-12.2881
ejo	-12.2882
▁Hochiminh	-12.2882
▁sorbitol	-12.2882
▁peroxide	-12.2882
▁Diffuse	-12.2882
▁leptin	-12.2882
▁Francisco	-12.2882
▁Under	-12.2883
▁unaffected	-12.2883
▁Continuous	-12.2883
▁rutin	-12.2883
▁Canada	-12.2883
▁Discussion	-12.2883
BI	-12.2883
Tiep	-12.2883
▁empyema	-12.2883
▁Block	-12.2883
▁gạo	-12.2883
▁odds	-12.2884
▁missing	-12.2885
▁Neonates	-12.2886
▁micronutrient	-12.2888
▁residents	-12.2893
▁Dermato	-12.2897
▁reserve	-12.29
▁kerato	-12.2904
DH	-12.291
▁definition	-12.2911
▁LSC	-12.2912
▁Object	-12.2918
▁upward	-12.2918
▁reveals	-12.2918
Tc	-12.292
hắt	-12.2923
▁catecholamine	-12.2927
▁classify	-12.2931
▁reuptake	-12.2931
▁utero	-12.2933
▁stabilize	-12.2934
even	-12.2935
▁Uterine	-12.2937
▁polycythemia	-12.2937
▁respondents	-12.2937
▁Nasal	-12.2937
▁Bien	-12.2937
▁confused	-12.2937
▁repetitive	-12.2937
▁soap	-12.2938
▁postoperation	-12.2939
ALL	-12.2942
▁precede	-12.2947
release	-12.2951
▁narrowing	-12.2952
▁analyses	-12.2953
▁phi	-12.2963
▁Platelet	-12.2965
▁consideration	-12.2967
▁Ngừ	-12.2967
▁phenytoin	-12.297
▁ice	-12.2973
▁fill	-12.2979
▁AN	-12.2986
▁encourage	-12.2989
▁split	-12.2989
▁nitroglycerin	-12.2991
▁SUVmax	-12.2991
▁microsurgery	-12.2991
▁Pancreatic	-12.2992
▁prion	-12.2992
▁inflamed	-12.2992
rist	-12.2993
▁Very	-12.2998
nation	-12.3002
▁chromosomes	-12.3008
ompared	-12.3012
▁document	-12.3015
ố	-12.3023
▁Electro	-12.3026
▁Fibro	-12.3029
▁menopausal	-12.3033
rum	-12.3035
▁ventilated	-12.3037
▁thù	-12.3039
alveolar	-12.3041
liều	-12.3042
▁margins	-12.3044
MO	-12.3044
▁Chư	-12.3044
▁Colorado	-12.3046
▁External	-12.3046
▁alkalosis	-12.3046
▁modalities	-12.3046
▁somewhat	-12.3046
▁diode	-12.3046
▁Safety	-12.3046
▁zona	-12.3046
▁oxytocin	-12.3046
▁bloodstream	-12.3046
▁khoeo	-12.305
▁CML	-12.3052
▁Bố	-12.3052
HB	-12.3056
▁detector	-12.3056
▁IPSS	-12.3057
▁led	-12.3062
ction	-12.3063
▁Level	-12.3066
▁enteric	-12.3068
▁quặn	-12.3069
▁neurons	-12.3069
ire	-12.3071
▁Objects	-12.3072
rank	-12.3074
▁Ear	-12.3074
▁equation	-12.3075
▁caregiver	-12.3075
▁consequence	-12.3075
FF	-12.3075
▁Hoàn	-12.3076
▁Nga	-12.3076
lington	-12.3078
▁reading	-12.3079
▁Katz	-12.3091
iết	-12.3093
▁cannula	-12.3094
▁Turner	-12.3096
▁conjunctiva	-12.31
Cl	-12.3101
▁Sterile	-12.3101
▁Symptomatic	-12.3101
▁bắn	-12.3101
▁coagulopathy	-12.3101
▁angioedema	-12.3101
▁intercostal	-12.3101
▁unavailable	-12.3101
▁Basedow	-12.3101
▁tonsillectomy	-12.3103
▁Prostate	-12.3104
ảnh	-12.3104
RN	-12.3109
SR	-12.3116
▁Rò	-12.3116
FAST	-12.3119
NTA	-12.3121
▁Im	-12.3122
▁contacts	-12.3124
▁touch	-12.3126
▁AMI	-12.3127
▁Geriatric	-12.3131
▁leukocyte	-12.3131
▁restoration	-12.3131
neur	-12.3132
minute	-12.3133
CKD	-12.3135
hole	-12.3136
ls	-12.3138
TER	-12.3144
▁propranolol	-12.3147
rg	-12.3148
work	-12.3156
▁Amikacin	-12.3157
▁Increasing	-12.3157
▁Lynch	-12.3157
▁describing	-12.3157
▁pneumococcal	-12.3157
▁vivax	-12.3157
▁Self	-12.3157
▁Pneumocystis	-12.3157
hether	-12.3157
▁septicemia	-12.3158
▁Lợi	-12.3158
▁realtime	-12.3158
▁Therapeutic	-12.3158
▁palpitations	-12.3158
▁retained	-12.3159
▁thoroughly	-12.316
▁accessory	-12.316
▁happened	-12.316
wave	-12.3161
▁Maria	-12.3161
foot	-12.3162
▁independently	-12.3168
▁blind	-12.3169
▁biologic	-12.3171
▁né	-12.3172
▁volunteers	-12.3172
▁ventilatory	-12.3173
▁End	-12.3175
▁apart	-12.3177
▁FA	-12.3177
▁adhesion	-12.3186
ET	-12.3191
▁úng	-12.3196
dấu	-12.3198
▁ductal	-12.3198
AB	-12.32
▁TEN	-12.3201
▁Dai	-12.3207
facial	-12.3208
▁blocker	-12.3211
▁Improv	-12.3211
▁Magnetic	-12.3212
▁ginseng	-12.3212
▁hemofiltration	-12.3212
▁misoprostol	-12.3212
▁vacuum	-12.3212
▁shaft	-12.3215
▁voiding	-12.3215
▁genome	-12.3216
▁die	-12.3217
▁GM	-12.322
▁Mayo	-12.3221
▁Nurses	-12.3221
series	-12.3224
col	-12.3225
▁progressively	-12.3227
▁complaints	-12.3229
▁African	-12.3229
▁alterations	-12.3231
▁Nâ	-12.3236
▁actively	-12.3236
▁pills	-12.3236
▁path	-12.3237
▁withdraw	-12.3242
▁HAI	-12.3246
weighted	-12.3246
▁ms	-12.3255
▁hà	-12.3257
▁polymer	-12.326
▁GINA	-12.3262
▁Khu	-12.3268
pancreatography	-12.3268
▁Exposure	-12.3268
▁Marfan	-12.3268
▁criterion	-12.3268
▁easier	-12.3268
▁incubation	-12.3268
▁Còn	-12.3268
▁Ferritin	-12.3268
▁Interpretation	-12.3268
▁ipsilateral	-12.3269
RFLP	-12.3269
oster	-12.3269
▁tháp	-12.3269
quez	-12.3269
▁iris	-12.327
any	-12.327
tending	-12.327
▁epigastric	-12.327
▁optimized	-12.3271
▁works	-12.3271
▁Cụ	-12.3273
▁promoter	-12.3273
▁Additionally	-12.3275
▁PCNL	-12.3277
▁OC	-12.3278
resolution	-12.3278
▁Ad	-12.3278
▁strokes	-12.3279
dưới	-12.328
uần	-12.3281
▁đụ	-12.3283
▁Stone	-12.3284
▁responded	-12.3289
▁khít	-12.3294
anol	-12.3301
▁Adult	-12.3303
ld	-12.3304
▁Intestinal	-12.3305
▁Huy	-12.3306
▁STAT	-12.3309
▁Have	-12.331
hẩu	-12.331
ft	-12.3311
▁UTPKTBN	-12.3311
▁observe	-12.3311
▁none	-12.3313
▁Due	-12.3313
▁TACE	-12.3313
▁sternal	-12.3319
▁Đơ	-12.332
ạn	-12.3321
▁Ampicillin	-12.3325
▁Cognitive	-12.3325
▁Kaplan	-12.3325
▁RESEARCH	-12.3325
▁albino	-12.3325
▁neoplasia	-12.3325
▁psychotherapy	-12.3325
▁flank	-12.3325
▁extrahepatic	-12.3325
▁scanner	-12.3329
carb	-12.3329
▁positioning	-12.3333
intraventricular	-12.3334
▁papules	-12.3334
▁antipsychotics	-12.3337
ELISA	-12.3338
fluoroquinolones	-12.3341
▁asthmatic	-12.3346
▁leukocytes	-12.3351
▁Fracture	-12.3355
▁Cat	-12.3356
press	-12.3357
▁domain	-12.3361
MG	-12.3362
▁She	-12.3365
PSA	-12.3365
PV	-12.3367
▁nhớt	-12.3368
log	-12.3373
▁lessen	-12.3373
rought	-12.3381
▁Azithromycin	-12.3381
▁Vinmec	-12.3381
▁asphyxia	-12.3381
▁trophoblast	-12.3381
▁adenovirus	-12.3382
▁disabilities	-12.3382
▁clotting	-12.3383
ik	-12.3386
eber	-12.3388
ồng	-12.3389
▁interact	-12.3389
▁BD	-12.339
hoát	-12.3392
▁SNK	-12.3393
▁sexes	-12.3394
ja	-12.3395
▁fo	-12.3395
▁input	-12.3396
gamma	-12.3399
người	-12.3399
▁Peri	-12.3401
▁biomarkers	-12.3403
▁Chiế	-12.3404
▁lang	-12.3407
▁enteral	-12.3409
▁TTTC	-12.3415
▁papillomavirus	-12.3416
▁Petr	-12.3428
iền	-12.3429
stein	-12.3431
CG	-12.3432
▁correspond	-12.3433
▁Obstructive	-12.3438
▁mobilizing	-12.3438
▁cặn	-12.3439
▁modality	-12.3439
▁HHK	-12.3439
▁Knee	-12.3439
▁mitochondrial	-12.3439
▁antivenom	-12.3439
▁overview	-12.3439
ably	-12.344
▁Rửa	-12.344
▁noticed	-12.344
▁fi	-12.3442
▁nails	-12.3443
▁supplemented	-12.3448
▁FFR	-12.345
ới	-12.3452
ằm	-12.3453
sized	-12.3453
▁super	-12.3453
LH	-12.3454
▁sessions	-12.3456
▁Related	-12.3456
▁ĐT	-12.3457
▁TS	-12.3459
behavioral	-12.346
▁FVC	-12.346
light	-12.3461
▁germ	-12.3461
▁ham	-12.3465
▁cu	-12.3465
▁shunting	-12.3467
▁thôi	-12.3469
sil	-12.3469
▁vegetable	-12.347
vaginal	-12.347
▁palm	-12.3474
úc	-12.3475
▁doxorubicin	-12.3479
iếc	-12.3482
▁Bi	-12.3483
▁RIF	-12.3484
▁sequences	-12.3489
▁accord	-12.349
MR	-12.3492
▁oC	-12.3492
▁Meanwhile	-12.3496
▁radius	-12.3496
▁antenatal	-12.3496
▁consolidation	-12.3496
▁Foley	-12.3496
▁nhiễu	-12.3496
▁extracorporeal	-12.3498
▁microvascular	-12.3498
▁kill	-12.3499
erman	-12.3499
ds	-12.3502
▁needles	-12.3502
▁outlet	-12.3503
▁cords	-12.3507
▁IIA	-12.3508
omy	-12.3514
▁RB	-12.3515
ACIP	-12.3519
depth	-12.3521
average	-12.3521
post	-12.3522
ord	-12.3524
ned	-12.3526
▁radiological	-12.353
▁SR	-12.3533
oz	-12.3538
▁prednisolone	-12.3545
toma	-12.3553
pheochromocytoma	-12.3554
▁Cronbach	-12.3554
▁Valsalva	-12.3554
▁hyperuricemia	-12.3554
▁pathophysiology	-12.3554
▁Source	-12.3554
▁Gender	-12.3554
▁Abnormalities	-12.3554
▁tendency	-12.3554
▁price	-12.3554
▁East	-12.3554
▁thầm	-12.3555
▁bịt	-12.3555
▁vuong	-12.3556
úa	-12.3556
▁citrate	-12.3556
ake	-12.3557
▁Southern	-12.3559
▁begun	-12.3561
▁resemble	-12.3562
▁Cystatin	-12.3569
▁call	-12.3573
▁resolved	-12.3573
wing	-12.3574
ò	-12.3577
org	-12.3579
▁weekly	-12.3581
kháng	-12.3584
▁advances	-12.3597
▁regulation	-12.3598
▁AVF	-12.3598
olin	-12.3599
ARD	-12.36
▁rules	-12.3602
hàn	-12.3602
iễn	-12.3605
▁share	-12.3609
▁update	-12.361
▁Absolute	-12.3612
▁Ovarian	-12.3612
▁Testosterone	-12.3612
▁epistaxis	-12.3612
▁gabapentin	-12.3612
▁ganglia	-12.3612
▁mycophenolate	-12.3612
▁stimuli	-12.3612
▁supervision	-12.3612
▁lacrimal	-12.3612
▁heterozygous	-12.3612
▁xỉ	-12.3613
▁resected	-12.3613
▁Removal	-12.3614
▁cuồng	-12.3615
▁Neck	-12.3615
▁fairly	-12.3615
▁explained	-12.3617
▁held	-12.3617
▁GDM	-12.3618
oxid	-12.3626
langiocarcinoma	-12.3627
▁HL	-12.3629
▁transmit	-12.3629
▁Hz	-12.3631
▁spots	-12.3633
density	-12.3634
ites	-12.3637
▁RE	-12.3641
▁ACT	-12.3644
▁ointment	-12.3644
▁khan	-12.3646
▁reporting	-12.3651
▁examiner	-12.3651
▁spasms	-12.3652
▁sent	-12.3654
▁BCG	-12.3655
▁Ischemi	-12.3663
▁chemo	-12.3664
▁retina	-12.3669
▁Faculty	-12.367
▁thickened	-12.367
▁autograft	-12.367
▁cọ	-12.367
▁đuối	-12.3671
▁robotic	-12.3674
hes	-12.3674
aortic	-12.3674
▁Force	-12.3674
▁chart	-12.3677
▁des	-12.3678
TI	-12.368
▁Initially	-12.3681
gin	-12.3681
▁inspiratory	-12.3685
▁Free	-12.3687
ROM	-12.3688
▁cytokin	-12.3695
▁Teo	-12.3696
▁DE	-12.3697
▁Hem	-12.3698
▁MO	-12.3698
▁demonstrate	-12.37
▁follicle	-12.3702
PK	-12.3704
▁kí	-12.3714
▁ensur	-12.3714
▁anticholinergic	-12.3716
▁Lào	-12.3721
▁iso	-12.3722
outhern	-12.3727
▁avulsion	-12.3729
▁hypovolemia	-12.3729
▁còm	-12.3729
▁wild	-12.3729
▁Psychiatric	-12.3729
▁wrong	-12.3729
▁pacing	-12.3729
▁cannulation	-12.3729
▁neither	-12.3729
▁slit	-12.3729
▁prediabetes	-12.373
wan	-12.3731
▁xen	-12.3731
▁airflow	-12.3731
▁previa	-12.3732
▁menses	-12.3732
▁tight	-12.3734
▁AE	-12.3734
▁mal	-12.3736
iasis	-12.3738
▁Apo	-12.3739
▁HKTMS	-12.374
ACS	-12.3741
mTc	-12.3742
▁egg	-12.3744
terobacteriaceae	-12.3748
▁follicular	-12.375
uk	-12.3752
▁SA	-12.3764
▁NN	-12.3765
▁NMR	-12.3768
▁Min	-12.3769
▁Organ	-12.3769
▁AD	-12.3781
▁proceed	-12.3783
▁precipitate	-12.3785
illi	-12.3786
▁larva	-12.3787
▁Langerhans	-12.3788
▁colleagues	-12.3788
▁diclofenac	-12.3788
▁junior	-12.3788
▁karyotype	-12.3788
▁suspension	-12.3788
▁colectomy	-12.3788
▁flexor	-12.3788
▁testes	-12.3789
▁transportation	-12.3789
▁diets	-12.3791
▁exhibited	-12.3792
ảm	-12.3793
▁anorectal	-12.3794
▁Củ	-12.3795
▁thirds	-12.3796
▁layers	-12.3796
▁Soc	-12.3801
FO	-12.3801
▁providers	-12.3802
▁RD	-12.3814
▁ester	-12.3815
▁Buồn	-12.3817
ava	-12.382
▁ARI	-12.382
là	-12.3821
FU	-12.3826
trigeminal	-12.3827
▁arise	-12.3832
Bảng	-12.3832
▁thymoma	-12.3834
GE	-12.3836
▁gastrin	-12.3836
▁Program	-12.3837
▁Beh	-12.3839
▁drying	-12.3841
BM	-12.3844
valent	-12.3847
histiocytosis	-12.3847
▁Colistin	-12.3847
▁Lắk	-12.3847
▁Plasmodium	-12.3847
▁aqueous	-12.3847
▁continuing	-12.3847
▁frequencies	-12.3847
▁industry	-12.3847
▁melanin	-12.3847
▁Tuberculosis	-12.3847
▁profound	-12.3847
▁defecation	-12.3847
▁complementary	-12.3847
▁Inflammatory	-12.3847
▁Unlike	-12.3848
▁chuyện	-12.3848
▁Past	-12.3849
▁Need	-12.3851
AM	-12.3852
▁APTT	-12.3853
▁fr	-12.3854
▁preexist	-12.3858
▁wine	-12.386
▁khôi	-12.386
▁hope	-12.3862
▁Sarcoma	-12.3865
▁steroids	-12.3866
▁transplanted	-12.3867
▁SU	-12.387
▁unlike	-12.387
▁streptococcal	-12.3874
▁Geriatrics	-12.3875
▁enema	-12.3881
▁IUD	-12.3883
▁pT	-12.3884
▁card	-12.3885
▁Lu	-12.3891
▁tape	-12.3892
uyen	-12.3893
▁hemo	-12.3894
▁station	-12.3895
before	-12.3896
▁lives	-12.3903
urs	-12.3904
▁resist	-12.3905
▁enterovirus	-12.3905
Hereditary	-12.3907
▁Lumbar	-12.3907
▁Thuật	-12.3907
▁temporarily	-12.3907
▁sc	-12.3907
▁ileal	-12.3907
▁latex	-12.3907
▁psychotic	-12.3907
▁Occupational	-12.3907
▁Excessive	-12.3907
▁El	-12.391
ological	-12.391
orneal	-12.3913
▁methodology	-12.3914
▁PSI	-12.3917
▁choáng	-12.3918
ified	-12.3924
▁dense	-12.3928
hs	-12.3929
▁IABP	-12.3929
▁balanced	-12.3929
omic	-12.3931
▁testis	-12.3934
▁meningiomas	-12.3937
▁statistic	-12.3937
▁Surveying	-12.3938
▁RCC	-12.3938
dent	-12.3939
▁Bù	-12.394
▁hole	-12.394
▁attachment	-12.3943
cellular	-12.3944
▁percentile	-12.395
▁po	-12.3951
▁thoughts	-12.3957
Cornell	-12.3959
Troponin	-12.396
cervical	-12.396
▁gr	-12.3961
ARA	-12.3962
gọi	-12.3964
iform	-12.3965
eclampsia	-12.3966
▁ATTP	-12.3966
▁predisposi	-12.3967
fetoprotein	-12.3967
▁Arthritis	-12.3967
▁Rockall	-12.3967
▁mobilization	-12.3967
▁patency	-12.3967
▁osteomyelitis	-12.3967
▁SURG	-12.3967
▁ileum	-12.3967
▁Staging	-12.3967
▁barium	-12.3967
▁rigidity	-12.3967
▁hypoplasia	-12.3967
▁priority	-12.3969
atory	-12.3969
▁cháy	-12.3969
▁HbE	-12.3971
▁perforators	-12.3976
hủng	-12.3977
▁incisors	-12.398
acute	-12.3983
▁relations	-12.3986
GN	-12.3986
▁tasks	-12.3987
OG	-12.3988
▁Hep	-12.399
aria	-12.3994
▁thyroxine	-12.4
gal	-12.4003
▁TBI	-12.4004
▁cóc	-12.4004
UV	-12.4007
ứt	-12.4009
▁BS	-12.4018
▁parkinson	-12.4018
▁Res	-12.402
▁SSRI	-12.4025
lectrocardiogram	-12.4027
▁Ventricular	-12.4027
▁curettage	-12.4027
▁migration	-12.4027
▁residence	-12.4027
▁CLINICAL	-12.4028
▁tapered	-12.4028
▁gáy	-12.4029
▁inspected	-12.4029
▁asymmetric	-12.4029
▁handling	-12.4029
▁rừng	-12.403
ECT	-12.4032
▁Mu	-12.4034
▁Five	-12.4035
▁sulbactam	-12.4037
▁optical	-12.404
▁microbial	-12.404
▁cities	-12.4046
▁Bá	-12.405
▁coming	-12.4056
▁TTP	-12.4057
ona	-12.406
▁Tg	-12.4061
▁NMN	-12.4063
vitamin	-12.4063
▁exists	-12.4067
▁acutely	-12.4068
▁nón	-12.407
▁crystal	-12.4071
IB	-12.4072
▁VN	-12.4073
ivity	-12.4077
▁seal	-12.4079
Tr	-12.408
weight	-12.4087
▁radionuclide	-12.4088
▁Depend	-12.4088
▁college	-12.4088
▁duyệt	-12.4089
còn	-12.4089
▁Moderna	-12.4089
▁incidentally	-12.409
treated	-12.409
▁chiếc	-12.4091
▁patches	-12.4092
▁paid	-12.4092
▁propose	-12.4093
del	-12.4095
hợ	-12.4095
otropic	-12.4096
TNC	-12.4096
reventive	-12.4096
rối	-12.4098
▁lipids	-12.4101
▁wards	-12.4103
ells	-12.4103
▁Thủng	-12.4103
▁IIIA	-12.4105
EO	-12.4106
▁dimensions	-12.4109
ể	-12.411
▁crystals	-12.4114
uong	-12.4115
▁physiological	-12.4118
▁bla	-12.4119
▁Generally	-12.4121
▁expert	-12.4121
▁lesser	-12.4122
▁Change	-12.4124
án	-12.4126
▁cất	-12.4126
▁Increase	-12.4129
lateral	-12.4133
▁search	-12.4139
clock	-12.414
▁stand	-12.4145
choledochal	-12.4145
▁Đó	-12.4148
▁alleles	-12.4149
▁Chemotherapy	-12.4149
▁Methadone	-12.4149
▁spondylitis	-12.4149
▁ĐRTKCT	-12.4149
▁alternate	-12.415
▁endogenous	-12.415
last	-12.4152
▁PID	-12.4152
somatic	-12.4153
▁Creatinin	-12.4153
▁centre	-12.4155
▁tazobactam	-12.4158
FT	-12.4159
▁stores	-12.416
chocardiographic	-12.4161
epithelial	-12.4162
▁blade	-12.4162
▁covering	-12.4164
▁Thở	-12.4164
▁HFMD	-12.4164
▁instructions	-12.4165
ủ	-12.4167
▁newer	-12.4169
▁CN	-12.4173
active	-12.4175
▁ong	-12.4178
urg	-12.4178
▁outer	-12.4181
▁lacking	-12.4184
iso	-12.4186
▁hái	-12.4187
▁efforts	-12.4188
hu	-12.419
▁buccal	-12.42
▁adrenalin	-12.4203
▁PPI	-12.4203
▁grams	-12.4204
▁signals	-12.4205
▁lift	-12.4206
sensitivity	-12.4207
▁invade	-12.4209
▁corpus	-12.4211
BioNTech	-12.4211
▁Epidemiology	-12.4211
▁Frequency	-12.4211
▁Holmium	-12.4211
▁Rituximab	-12.4211
▁antibiogram	-12.4211
▁botulism	-12.4211
▁diverticulitis	-12.4211
▁leukopenia	-12.4211
▁mofetil	-12.4211
▁stercoralis	-12.4211
▁thiazide	-12.4211
▁ulfamethoxazole	-12.4211
▁Interleukin	-12.4211
▁malocclusion	-12.4211
▁platinum	-12.4211
▁inheritance	-12.4211
▁unwanted	-12.4211
▁Septic	-12.4211
▁đạc	-12.4213
▁PVT	-12.4214
▁Fung	-12.4214
▁cạn	-12.4216
▁thrombotic	-12.4217
▁blockage	-12.4219
▁paresthesias	-12.4219
gồm	-12.422
ERCP	-12.422
▁Bar	-12.4229
▁ASPECTS	-12.4233
UR	-12.4235
▁coughing	-12.4248
▁casts	-12.4248
▁monthly	-12.425
MTC	-12.425
▁eight	-12.4255
▁POS	-12.4257
▁percentages	-12.426
LI	-12.4261
▁formulas	-12.4262
▁glutamate	-12.4263
▁Previous	-12.427
▁trọn	-12.4271
▁acetylcholine	-12.4273
▁Metformin	-12.4273
▁bullosa	-12.4273
▁clavicle	-12.4273
▁endodontic	-12.4273
▁resorption	-12.4273
▁science	-12.4273
▁Endocrine	-12.4273
▁Thap	-12.4273
▁Endoscopy	-12.4273
▁Damage	-12.4273
▁Partial	-12.4273
▁deposits	-12.4277
▁Outpatient	-12.4281
▁ngôi	-12.4282
graft	-12.4286
▁oils	-12.4287
EM	-12.4293
▁occlusive	-12.4293
▁herb	-12.4296
▁lò	-12.4297
▁neoplasms	-12.4297
▁partly	-12.4298
▁Bupivacaine	-12.43
cea	-12.4301
▁đáo	-12.4302
▁meaning	-12.4302
▁exposures	-12.4304
▁allergen	-12.431
▁lacerations	-12.4315
TIC	-12.4315
▁Gr	-12.4317
NL	-12.4318
▁phô	-12.432
▁handle	-12.4322
tip	-12.4324
▁unresponsive	-12.4331
▁caffeine	-12.4332
lly	-12.4333
▁hematomas	-12.4334
▁sứ	-12.4334
▁deaminase	-12.4335
▁married	-12.4335
▁rotavirus	-12.4335
▁đạp	-12.4335
▁Having	-12.4335
▁flexed	-12.4336
▁fractions	-12.4336
▁completion	-12.4336
▁chị	-12.4338
▁eliminated	-12.4338
▁believed	-12.4339
▁pulses	-12.434
tent	-12.434
sive	-12.4341
coated	-12.4344
▁Nông	-12.4344
NCT	-12.4346
causing	-12.4353
pressure	-12.4353
AVM	-12.4354
▁NRS	-12.4357
▁Ortho	-12.4358
▁Shock	-12.4359
▁King	-12.4362
bl	-12.4363
peri	-12.4368
▁network	-12.4372
▁VPBV	-12.4372
▁impacts	-12.4373
ART	-12.4374
▁SNP	-12.4376
▁Factor	-12.4376
▁stimulates	-12.4377
used	-12.4378
plication	-12.4381
▁neuron	-12.4381
AML	-12.4384
▁piperacillin	-12.4384
▁polymorphisms	-12.4386
▁member	-12.4389
▁vang	-12.4389
ight	-12.4391
▁mycobacteria	-12.4397
oromandibular	-12.4398
▁Analyzing	-12.4398
▁Columbia	-12.4398
▁Distribution	-12.4398
▁Meropenem	-12.4398
▁curvature	-12.4398
▁immunoassay	-12.4398
▁infertile	-12.4398
▁pharmacies	-12.4398
▁pharynx	-12.4398
▁snoring	-12.4398
▁tồi	-12.4398
▁imatinib	-12.4398
▁Urine	-12.4398
▁foci	-12.4398
▁albuminuria	-12.4399
▁Day	-12.4399
▁validation	-12.44
▁Thân	-12.44
▁considerable	-12.44
iss	-12.4401
▁consulted	-12.4401
▁switch	-12.4403
▁FGF	-12.4407
▁z	-12.4408
▁sảy	-12.4411
▁MCH	-12.4412
war	-12.4415
▁nạng	-12.4418
▁MET	-12.442
▁OH	-12.4421
SV	-12.4422
▁threatening	-12.4424
▁CFU	-12.4425
total	-12.4425
isation	-12.4426
TBG	-12.4426
▁STC	-12.4426
▁exhibit	-12.4427
▁cống	-12.4427
▁app	-12.4432
▁climate	-12.4435
hydroxy	-12.4435
▁mutant	-12.4435
ocular	-12.444
erial	-12.4441
▁LMA	-12.4444
▁offer	-12.4446
▁THCS	-12.4451
pidural	-12.4453
▁Erythema	-12.4461
▁Example	-12.4461
▁Myocardial	-12.4461
▁Paclitaxel	-12.4461
▁mammography	-12.4461
▁mươi	-12.4461
▁retinol	-12.4461
▁stridor	-12.4461
▁subluxation	-12.4461
▁khép	-12.4461
▁compatible	-12.4461
▁Kehr	-12.4461
▁SLEDAI	-12.4461
▁neurogenic	-12.4461
▁Rubin	-12.4462
▁Dien	-12.4463
▁tacrolimus	-12.4463
▁Combined	-12.4463
▁Lateral	-12.4463
▁Recommended	-12.4464
▁exactly	-12.4465
▁athletes	-12.4467
quality	-12.4469
▁hcmc	-12.4472
iti	-12.4473
▁gương	-12.4476
▁radiographs	-12.4482
TAP	-12.4482
▁obstruct	-12.4486
ull	-12.449
▁answer	-12.4494
Scan	-12.4495
▁Foot	-12.4496
▁alkaloid	-12.4499
▁concept	-12.45
▁pole	-12.4501
▁SI	-12.4503
erner	-12.4508
▁gò	-12.4509
▁nhan	-12.4513
▁macrolide	-12.4517
▁ever	-12.4522
▁Clindamycin	-12.4525
▁Takasaki	-12.4525
▁advice	-12.4525
▁fulminant	-12.4525
▁leaving	-12.4525
▁reservoir	-12.4525
▁Division	-12.4525
▁consent	-12.4525
▁microsurgical	-12.4525
▁excreted	-12.4526
ithout	-12.4526
▁GOS	-12.4526
▁vulvar	-12.4526
▁infestation	-12.4527
▁Full	-12.4527
▁emptying	-12.4527
▁push	-12.4528
▁obstructed	-12.4529
▁Stevens	-12.4532
▁sufficiently	-12.4534
▁trait	-12.4539
▁customers	-12.454
arterial	-12.4542
ML	-12.4552
▁quit	-12.4552
▁INH	-12.4554
▁pol	-12.4554
▁spaces	-12.4554
ima	-12.4555
peritoneal	-12.4558
clo	-12.4558
▁kappa	-12.4562
▁vehicle	-12.4563
▁granuloma	-12.4563
▁Cases	-12.4567
▁AB	-12.4567
GFR	-12.4569
▁rat	-12.4571
lies	-12.4573
▁edges	-12.4574
▁biếng	-12.4575
▁UP	-12.4576
▁chains	-12.4586
▁loose	-12.4588
▁Dementia	-12.4589
▁bursitis	-12.4589
▁identity	-12.4589
▁irrigating	-12.4589
▁mannitol	-12.4589
▁plasminogen	-12.4589
▁Breastfeeding	-12.4589
▁calculation	-12.4589
▁dramatically	-12.4589
LB	-12.4589
▁replication	-12.4589
▁Frank	-12.459
▁BTNT	-12.4592
▁codon	-12.4593
▁sặc	-12.4593
▁ATCC	-12.4595
▁pediatrics	-12.46
▁Phải	-12.4603
▁flags	-12.4605
osid	-12.4607
left	-12.4608
▁mRS	-12.461
value	-12.461
▁psycho	-12.461
slice	-12.4611
field	-12.4612
derived	-12.4623
▁barriers	-12.4624
▁conjugate	-12.4634
▁helminth	-12.4638
▁PIVKA	-12.4638
▁tảng	-12.4643
▁Proteus	-12.4653
▁gậy	-12.4653
▁Contrast	-12.4653
▁tặng	-12.4653
▁categorize	-12.4653
▁hyperlipidemia	-12.4653
▁bioavailability	-12.4653
▁lethal	-12.4653
▁Toxicity	-12.4653
▁granulomatous	-12.4654
▁Barthel	-12.4654
▁ngặt	-12.4654
▁Phase	-12.4656
▁NF	-12.4656
rew	-12.4657
▁thereafter	-12.4658
▁Doxycycline	-12.4658
propyl	-12.4659
▁guidewire	-12.4659
▁China	-12.4659
▁compressed	-12.4662
hành	-12.467
▁Tum	-12.4673
gene	-12.4682
▁Pháp	-12.4682
▁gom	-12.4686
▁MAS	-12.469
▁organization	-12.4691
▁Medication	-12.4692
▁correlates	-12.4694
ARDS	-12.4694
▁convert	-12.4696
▁ref	-12.4698
▁formulations	-12.4701
▁ropivacain	-12.4708
▁thermal	-12.471
ney	-12.4711
sus	-12.4711
▁ARF	-12.4711
▁bursa	-12.4717
▁Academy	-12.4718
▁Arthrocentesis	-12.4718
▁Mechanism	-12.4718
▁Middle	-12.4718
▁Recurrence	-12.4718
▁neuroimaging	-12.4718
▁quấn	-12.4718
water	-12.4718
▁Rankin	-12.4718
▁LAM	-12.4718
sini	-12.4719
hand	-12.4721
▁Angiotensin	-12.4724
▁consumers	-12.4726
▁subsequently	-12.4726
▁gases	-12.4727
▁amenorrhea	-12.4727
▁MHC	-12.4728
ette	-12.473
▁rim	-12.4733
▁alanine	-12.4733
▁Dys	-12.4735
▁Sim	-12.4742
▁Lá	-12.4743
IM	-12.4744
aking	-12.4747
▁His	-12.4747
CF	-12.4748
ilms	-12.4751
page	-12.4754
CRT	-12.4754
▁fragment	-12.4756
▁Opioid	-12.4757
gan	-12.476
hấp	-12.4764
OC	-12.4766
▁stained	-12.4767
when	-12.477
▁sarcom	-12.4774
MBA	-12.4775
▁Function	-12.4775
▁RFA	-12.4775
▁dressings	-12.478
▁exclusive	-12.4781
▁aspirate	-12.4781
▁MMR	-12.4781
osin	-12.4782
▁DIE	-12.4782
▁ideal	-12.4783
▁hybrid	-12.4783
droxychloroquine	-12.4783
▁conservation	-12.4783
▁experiencing	-12.4783
▁varicose	-12.4783
▁caution	-12.4783
▁Likert	-12.4783
▁checklist	-12.4783
▁hypothalamic	-12.4783
▁humidity	-12.4783
▁gangrene	-12.4783
eneca	-12.4783
▁comfortable	-12.4783
▁consistency	-12.4783
▁phosphorus	-12.4783
▁greatest	-12.4784
▁GP	-12.4785
▁visualization	-12.4785
▁rep	-12.4786
▁demands	-12.4788
▁landmarks	-12.4789
▁unrelated	-12.4789
rial	-12.479
▁dec	-12.4795
▁cadavers	-12.4796
xclusion	-12.4796
▁profiles	-12.4799
▁thoa	-12.4801
LL	-12.4801
uri	-12.4804
train	-12.4812
▁lay	-12.4815
▁Cử	-12.4816
▁law	-12.4825
▁SMA	-12.4825
ids	-12.4826
▁anesthetics	-12.4828
Vis	-12.483
ori	-12.4831
coemulsification	-12.4831
fic	-12.4833
severe	-12.4834
UTI	-12.4835
▁clot	-12.4836
VAS	-12.4837
eta	-12.4838
▁symmetric	-12.4839
hepatic	-12.484
▁complain	-12.4842
nia	-12.4845
▁phốt	-12.4846
▁cốc	-12.4847
▁papilloma	-12.4849
▁Squamous	-12.4849
▁alveolus	-12.4849
▁immature	-12.4849
▁intoxication	-12.4849
▁paroxysmal	-12.4849
▁workplace	-12.4849
▁cognition	-12.4849
▁transthoracic	-12.4849
▁authorities	-12.4849
▁TRAb	-12.4849
▁periodically	-12.4851
▁compresses	-12.4851
▁youngest	-12.4852
▁Vein	-12.4852
Ig	-12.4852
▁watery	-12.4853
▁MDA	-12.4854
fractionated	-12.4854
pore	-12.4855
globulin	-12.4856
▁implementing	-12.4857
▁flora	-12.4857
▁react	-12.486
▁let	-12.4861
▁sickle	-12.4863
▁Vệ	-12.4865
▁particles	-12.4866
▁silic	-12.4874
blocker	-12.4875
▁recurrences	-12.4876
ifferential	-12.4877
▁domains	-12.4879
ano	-12.488
▁rescue	-12.4883
▁bridge	-12.4885
its	-12.4886
▁acetic	-12.4887
filled	-12.4893
▁CIN	-12.4894
NAT	-12.4894
▁contract	-12.4897
pert	-12.49
phân	-12.4903
ECG	-12.4904
cz	-12.4908
sure	-12.4911
▁Similar	-12.4912
huột	-12.4914
DIC	-12.4914
ector	-12.4914
▁Cytomegalovirus	-12.4915
▁fishermen	-12.4915
▁opacities	-12.4915
▁Resistance	-12.4915
▁Prenatal	-12.4915
▁calcitriol	-12.4915
▁khoan	-12.4916
▁Cisplatin	-12.4917
▁PCV	-12.4917
cholesterolemia	-12.4918
FRA	-12.4918
▁commercially	-12.4919
inch	-12.4919
▁Nile	-12.492
▁heel	-12.4927
▁Sex	-12.493
▁worm	-12.4932
▁inject	-12.4937
ngày	-12.4941
▁gra	-12.4941
▁MLT	-12.4942
▁sen	-12.4946
▁SIADH	-12.495
▁trần	-12.4951
▁Pho	-12.4953
▁swab	-12.4955
▁disappear	-12.4955
▁relate	-12.4956
▁Six	-12.496
▁Thư	-12.4961
▁boy	-12.4961
▁imbalance	-12.4963
▁reache	-12.4963
▁Mycoplasma	-12.4966
ward	-12.4968
ột	-12.4968
myc	-12.4968
KD	-12.4969
▁ga	-12.497
▁IIb	-12.4971
▁Adrenal	-12.4973
▁GAD	-12.4974
▁levobupivacain	-12.4975
tim	-12.4975
▁Ta	-12.4977
▁comfort	-12.4981
▁Pearson	-12.4981
▁alopecia	-12.4981
▁comparable	-12.4981
▁lactulose	-12.4981
▁nystagmus	-12.4981
▁Tesla	-12.4981
▁ovaries	-12.4981
▁Kali	-12.4982
▁managers	-12.4982
▁Traumatic	-12.4982
▁Acne	-12.4982
▁loud	-12.4982
▁Features	-12.4984
▁dầm	-12.4988
▁Hp	-12.499
▁SRP	-12.4992
▁recording	-12.4992
▁oldest	-12.4995
▁soluble	-12.4995
ừng	-12.4996
▁carbamazepine	-12.4999
▁PRP	-12.5004
▁DSM	-12.5014
▁existing	-12.5019
▁Fo	-12.5021
▁forces	-12.5027
▁Đư	-12.5029
▁fails	-12.503
▁regard	-12.5034
ESR	-12.5034
▁polysaccharide	-12.5034
▁preced	-12.5036
▁sarcopenia	-12.5037
▁Cap	-12.5038
AV	-12.5041
▁temp	-12.5043
interstitial	-12.5043
alcoholic	-12.5043
sodium	-12.5043
because	-12.5043
▁chay	-12.5043
loại	-12.5044
▁tròng	-12.5045
▁transplants	-12.5046
▁osteo	-12.5046
los	-12.5046
▁theory	-12.5047
▁Establish	-12.5048
▁Colorectal	-12.5048
▁drowning	-12.5048
▁leukocytosis	-12.5048
▁heroin	-12.5048
▁weather	-12.5048
▁bronchitis	-12.5048
▁tubal	-12.5048
▁overlying	-12.5048
▁Postpartum	-12.5048
▁Tháp	-12.5048
▁neoadjuvant	-12.5048
▁Strongyloides	-12.5049
▁Lactobacillus	-12.5049
▁sanitation	-12.505
▁pool	-12.5052
▁Intraoperative	-12.5052
▁accelerated	-12.5053
▁estimates	-12.5054
▁press	-12.5055
▁toilet	-12.5056
▁Mutations	-12.5056
SL	-12.5062
oài	-12.5063
▁Excel	-12.5064
▁drawn	-12.5065
uyến	-12.5065
▁UTIs	-12.5066
▁introduce	-12.5071
▁pharyngeal	-12.5071
▁HAP	-12.5072
▁Confirm	-12.5074
▁follicles	-12.5078
▁ball	-12.508
LR	-12.5085
▁astrocytoma	-12.5089
▁neoplasm	-12.5089
pid	-12.5092
CLS	-12.5097
▁Remov	-12.5099
▁PEG	-12.5101
icu	-12.5107
istic	-12.5109
class	-12.5109
▁Nôn	-12.5113
trừ	-12.5115
▁Horner	-12.5116
▁Richard	-12.5116
▁dyssynchrony	-12.5116
▁giận	-12.5116
▁irradiation	-12.5116
▁TVUS	-12.5116
▁volvulus	-12.5116
▁ppb	-12.5116
Meier	-12.5116
▁extracellular	-12.5116
▁cochlear	-12.5117
béo	-12.5117
▁peroneal	-12.5117
▁warranted	-12.5118
▁running	-12.5118
▁dát	-12.5119
▁comprised	-12.5119
▁oxi	-12.5121
▁meaningful	-12.5121
▁thảm	-12.5121
▁SBP	-12.5122
step	-12.5123
▁Chel	-12.5123
▁references	-12.5123
át	-12.5124
▁chim	-12.5125
▁thinking	-12.5126
▁Đứ	-12.5127
▁CGM	-12.5129
inter	-12.513
▁ALK	-12.5133
mental	-12.5133
LDL	-12.5133
▁season	-12.5141
▁Types	-12.5145
▁cat	-12.5146
▁prop	-12.5146
▁rivaroxaban	-12.515
▁aminoglycosides	-12.5152
▁Fontan	-12.5153
▁lidocain	-12.5154
iliary	-12.5154
topic	-12.5154
▁eosinophil	-12.5156
▁Culture	-12.5157
▁Characteristic	-12.5157
▁biomarker	-12.5157
▁Mono	-12.5158
▁UK	-12.5166
▁immunologic	-12.5175
▁macro	-12.5177
▁Tissue	-12.5179
ultrasonographic	-12.5183
▁Bladder	-12.5183
▁Especially	-12.5183
▁London	-12.5183
▁Stanford	-12.5183
▁broken	-12.5183
▁bấm	-12.5183
▁osteonecrosis	-12.5183
▁rhinorrhea	-12.5183
▁thrombolysis	-12.5183
▁urgency	-12.5183
▁vibration	-12.5183
▁circumflex	-12.5183
▁Rotavirus	-12.5183
▁MELD	-12.5183
▁MMSE	-12.5183
▁decompensated	-12.5183
▁supplied	-12.5184
▁transcatheter	-12.5184
▁precision	-12.5184
▁augmentation	-12.5184
▁multifocal	-12.5184
▁silver	-12.5184
▁plateau	-12.5184
▁sleepiness	-12.5184
▁Motor	-12.5184
▁dying	-12.5185
olff	-12.5185
▁epileptic	-12.5185
▁Serologic	-12.5186
▁borderline	-12.5187
▁medullary	-12.5188
▁mediators	-12.5188
person	-12.5188
▁fetuses	-12.519
▁polycysti	-12.5191
▁carboplatin	-12.5193
▁furosemide	-12.5194
▁fun	-12.5197
▁MC	-12.5198
▁dịu	-12.5201
▁parental	-12.5203
▁tearing	-12.5203
▁bullae	-12.5205
▁expand	-12.5208
rho	-12.5208
▁Ia	-12.5209
▁lobes	-12.521
▁collective	-12.521
▁nét	-12.5211
effectiveness	-12.5214
▁phenylephrine	-12.5214
pathy	-12.5216
equ	-12.5217
▁says	-12.5217
suy	-12.5219
▁Marie	-12.522
▁institution	-12.5222
▁posture	-12.5223
▁PGS	-12.5225
▁principle	-12.5226
▁crown	-12.5226
▁TCI	-12.523
▁rã	-12.523
▁similarly	-12.5231
▁prefer	-12.5235
sử	-12.5235
cause	-12.5244
▁drive	-12.5249
EV	-12.5249
▁diverticula	-12.5249
uantitative	-12.5251
▁Gleason	-12.5252
▁KDIGO	-12.5252
▁Shigella	-12.5252
▁Spontaneous	-12.5252
▁dapsone	-12.5252
▁enamel	-12.5252
▁gingivitis	-12.5252
▁mesenchymal	-12.5252
▁midazolam	-12.5252
▁stream	-12.5252
▁triamcinolone	-12.5252
▁Hepatocellular	-12.5252
▁Nephrology	-12.5252
▁court	-12.5252
▁manipulation	-12.5252
▁Stata	-12.5252
▁humerus	-12.5252
▁hyperactivity	-12.5253
▁upright	-12.5254
OB	-12.5254
▁healed	-12.5258
ượng	-12.5258
▁farmers	-12.5259
blood	-12.526
▁acoustic	-12.5262
odd	-12.5262
▁lifetime	-12.5262
▁Next	-12.5263
▁apoptosis	-12.5263
▁Impair	-12.5265
▁preferably	-12.5265
set	-12.5267
IU	-12.5269
▁mole	-12.527
▁IVUS	-12.5273
vasive	-12.5276
▁tracts	-12.5278
▁ft	-12.5279
ABL	-12.5279
▁sling	-12.5282
version	-12.5283
▁condyle	-12.5284
take	-12.5285
▁Simple	-12.5286
ạc	-12.5289
▁tumours	-12.5291
hydra	-12.5294
bro	-12.5294
▁USA	-12.5298
ớ	-12.5299
ried	-12.5301
lary	-12.5302
▁ad	-12.5303
▁Phơ	-12.5305
▁deal	-12.5305
hâu	-12.5309
diol	-12.5311
mu	-12.5317
perative	-12.5319
▁tien	-12.532
ernicke	-12.532
▁Rupture	-12.532
▁became	-12.532
▁minimizing	-12.532
▁ngậm	-12.532
▁remote	-12.532
▁solubility	-12.532
▁vitreous	-12.532
▁spectrometry	-12.5321
▁breakdown	-12.5321
▁translocation	-12.5321
▁gentle	-12.5321
▁grasp	-12.5321
▁calculus	-12.5321
▁subtotal	-12.5321
▁immunotherapy	-12.5321
▁simulation	-12.5321
▁evacuation	-12.5321
▁Phước	-12.5322
▁glycogen	-12.5323
▁urease	-12.5325
▁brushing	-12.5325
▁recall	-12.5325
▁tracking	-12.5325
▁FIGO	-12.5327
▁accept	-12.5329
COVID	-12.5333
energy	-12.5333
▁Dart	-12.5334
đau	-12.5334
▁CRRT	-12.5335
▁inspiration	-12.5337
erald	-12.5338
▁gained	-12.5341
ogenic	-12.5343
sero	-12.5347
▁búi	-12.5351
para	-12.5362
▁picture	-12.5364
hẩm	-12.5364
▁univaria	-12.5364
▁encode	-12.5365
▁prim	-12.5367
▁EPO	-12.5368
▁Tube	-12.5368
TGA	-12.537
▁disrupt	-12.538
▁cap	-12.5382
▁CAR	-12.5385
ơi	-12.5385
▁MDR	-12.5388
▁pleura	-12.5388
▁Sodium	-12.539
▁Twenty	-12.539
Thalassaemia	-12.539
hosphodiesterase	-12.539
▁Diarrhea	-12.539
▁Pennsylvania	-12.539
▁Proportion	-12.539
▁Transmission	-12.539
▁neuropathic	-12.539
▁tenofovir	-12.539
▁Erythromycin	-12.539
▁Serious	-12.539
▁things	-12.5391
▁Light	-12.5394
▁lê	-12.5395
▁hemi	-12.5395
▁phone	-12.5396
▁Nốt	-12.5397
▁Physicians	-12.5398
▁choices	-12.5398
▁CLL	-12.5399
▁PEU	-12.5399
▁longest	-12.5399
▁carbohydrates	-12.5403
▁youth	-12.5404
▁Só	-12.5404
ESBL	-12.5405
sarcoma	-12.5407
frequency	-12.5407
valvular	-12.5407
child	-12.5407
▁views	-12.541
▁Fried	-12.5415
▁androgens	-12.5416
▁appendice	-12.5423
iev	-12.5424
▁CVC	-12.5425
ESS	-12.5429
▁shorten	-12.543
ám	-12.5432
▁mins	-12.5436
itch	-12.5439
dex	-12.5446
▁preserving	-12.5449
ologic	-12.5449
▁calcitonin	-12.5451
▁destroy	-12.5455
ez	-12.5455
▁RN	-12.5458
▁acetat	-12.5459
▁category	-12.5459
▁companies	-12.5459
▁meloxicam	-12.5459
▁midwives	-12.5459
▁retinoblastoma	-12.5459
▁Màng	-12.546
▁radiosurgery	-12.546
▁gum	-12.546
▁ketoacidosis	-12.546
▁phuong	-12.546
▁Đới	-12.5461
▁modest	-12.5461
▁hemostatic	-12.5461
▁creatine	-12.5462
▁generated	-12.5462
▁Hip	-12.5463
▁exception	-12.5465
VI	-12.5465
CAD	-12.5465
▁interested	-12.5469
▁keeping	-12.5477
▁NKHHC	-12.5478
▁refer	-12.548
▁UVB	-12.5481
Hình	-12.5481
Hội	-12.5481
oung	-12.5484
therapeutic	-12.5485
mặt	-12.5486
sensitive	-12.5488
itin	-12.549
Biliary	-12.5493
under	-12.5494
▁us	-12.5496
▁lived	-12.5496
hanging	-12.5497
▁HATT	-12.5497
▁trocars	-12.5498
▁inverse	-12.5499
well	-12.5502
EG	-12.5504
pati	-12.5505
▁yeast	-12.5506
emorrhagic	-12.5513
▁NIH	-12.5516
▁os	-12.5517
▁Reduce	-12.552
part	-12.5523
▁mind	-12.5525
▁cataracts	-12.5526
roll	-12.5528
▁respect	-12.553
▁hochiminh	-12.553
▁independence	-12.553
▁investigating	-12.553
▁communicate	-12.553
▁nucleus	-12.553
▁planned	-12.553
▁retardation	-12.553
▁restrictive	-12.5531
▁Preterm	-12.5533
▁leo	-12.5534
▁coexisting	-12.5536
▁restored	-12.5537
▁expiratory	-12.5537
▁Duke	-12.5538
TEE	-12.5541
▁splinting	-12.5541
▁damages	-12.5542
▁thrombin	-12.5546
mất	-12.5547
▁TN	-12.5548
TV	-12.5549
▁dogs	-12.5549
▁CAL	-12.5549
▁ste	-12.5553
TDM	-12.5554
▁PTA	-12.5555
BUN	-12.5556
conjunctivitis	-12.5556
except	-12.5557
▁VTE	-12.5557
chia	-12.5561
▁sần	-12.5564
NMR	-12.5565
▁porphyrias	-12.5565
▁Tỉnh	-12.5567
▁rational	-12.5567
ition	-12.5568
▁attribut	-12.5572
▁contusion	-12.5574
gli	-12.5579
▁draw	-12.5579
▁ACC	-12.5582
▁Nghị	-12.5582
▁DSS	-12.5582
round	-12.5583
ưu	-12.5595
▁bound	-12.5595
▁Acquired	-12.5596
AMA	-12.56
reductase	-12.56
▁debris	-12.56
▁examining	-12.56
▁relapsing	-12.56
▁nhợt	-12.56
▁Imatinib	-12.56
▁Axit	-12.5601
▁hepatobiliary	-12.5601
▁oxidative	-12.5601
▁rubber	-12.5601
▁Urethral	-12.5601
▁Selective	-12.5601
ogram	-12.5601
▁colonization	-12.5602
▁awakening	-12.5603
▁mosquitoes	-12.5603
▁quantify	-12.5605
▁prepar	-12.5605
▁Active	-12.5606
▁Plus	-12.5606
anal	-12.5606
▁nhát	-12.5606
▁converted	-12.5606
▁pale	-12.561
▁entering	-12.5613
mega	-12.5614
▁art	-12.5614
hyper	-12.5615
traumatic	-12.5617
oni	-12.562
òng	-12.5624
▁actions	-12.5627
▁salts	-12.5628
▁checking	-12.563
counter	-12.563
▁retro	-12.563
tude	-12.5631
lig	-12.5631
trực	-12.5632
graph	-12.5634
TMP	-12.5636
▁DNT	-12.5645
▁hundred	-12.5646
▁perspective	-12.5646
kine	-12.565
▁ME	-12.5656
neurotransmitter	-12.5661
GO	-12.5667
▁Abscess	-12.567
▁sporadic	-12.5671
▁ANOVA	-12.5672
▁Misoprostol	-12.5672
▁Nhuộm	-12.5672
▁Thirty	-12.5672
▁groin	-12.5672
▁request	-12.5672
▁Model	-12.5672
▁dysuria	-12.5672
▁survivors	-12.5672
▁Peter	-12.5674
▁acceptance	-12.5674
▁crying	-12.5675
▁expanded	-12.5676
▁stasis	-12.5677
▁SC	-12.5678
▁travelers	-12.5678
▁Anton	-12.5679
▁Normally	-12.5681
▁besides	-12.5683
▁khoản	-12.5683
▁signaling	-12.5686
▁pill	-12.5688
PB	-12.569
▁gynecological	-12.569
▁cur	-12.5693
NIH	-12.5694
▁longus	-12.5695
▁LS	-12.5698
mask	-12.5699
▁code	-12.5703
▁Va	-12.5703
▁Phuc	-12.5703
ECMO	-12.5708
zoster	-12.5709
gic	-12.5711
▁ceftazidime	-12.5711
▁PTT	-12.5714
contrast	-12.5715
▁hemangioma	-12.5717
▁DCCT	-12.5719
▁phu	-12.5725
iều	-12.5727
▁square	-12.5732
thực	-12.5732
▁ADN	-12.5736
▁CAN	-12.5738
▁dye	-12.5739
▁nhờn	-12.5741
▁opened	-12.5743
myelitis	-12.5743
▁Appropriate	-12.5743
▁Participants	-12.5743
▁Technical	-12.5743
▁arteritis	-12.5743
▁enterocolitis	-12.5743
▁isoniazid	-12.5743
▁malignancies	-12.5743
▁neuropathies	-12.5743
▁remedies	-12.5743
▁osteosarcoma	-12.5743
▁encoding	-12.5744
▁abduction	-12.5744
▁CHARACTERISTICS	-12.5744
▁rebleeding	-12.5744
▁serous	-12.5744
▁biology	-12.5744
▁SVRI	-12.5745
▁submucosal	-12.5745
▁postural	-12.5745
▁chlamydial	-12.5746
▁Fl	-12.5746
▁viet	-12.5747
▁bo	-12.5748
▁enhancing	-12.5749
▁Kéo	-12.5749
▁Mi	-12.5753
tant	-12.5756
TEM	-12.5757
▁victims	-12.5759
▁NDM	-12.5763
▁plates	-12.5767
▁Dem	-12.5767
▁blocking	-12.5768
DO	-12.5768
existing	-12.577
peptide	-12.577
▁Gl	-12.5773
▁granulomas	-12.5773
peak	-12.5775
▁Levels	-12.5778
▁spreading	-12.5778
receptor	-12.5785
▁ABG	-12.5788
▁retraction	-12.579
▁contribution	-12.5791
▁Clin	-12.5796
gel	-12.5797
via	-12.5797
don	-12.5801
SSS	-12.5803
▁CE	-12.5803
▁Max	-12.5805
▁influences	-12.5806
rat	-12.5807
▁worsens	-12.5809
▁aids	-12.5811
▁ends	-12.5811
▁pigment	-12.5813
standing	-12.5815
▁Oxy	-12.5816
▁Haiphong	-12.5816
▁chăn	-12.5816
▁deprivation	-12.5816
▁gộp	-12.5816
▁anaesthesia	-12.5816
▁phototherapy	-12.5816
▁considerably	-12.5816
▁omega	-12.5816
▁pit	-12.5817
▁đắng	-12.5817
▁spent	-12.5818
▁lăng	-12.5818
▁clavulanate	-12.5818
inf	-12.5818
▁Parents	-12.582
▁cạo	-12.5821
▁sciatica	-12.5821
berg	-12.5822
rem	-12.5824
date	-12.5832
Ag	-12.5835
▁island	-12.5835
Co	-12.5836
▁Cut	-12.5836
▁exit	-12.5838
▁lúa	-12.5839
PRO	-12.5841
▁VIS	-12.5842
tributed	-12.5842
▁spot	-12.5846
▁lean	-12.5848
INH	-12.5852
▁Chung	-12.5854
▁Hàn	-12.5858
▁Part	-12.586
▁regime	-12.586
▁Pla	-12.5862
▁rub	-12.5862
heart	-12.5862
▁transaminase	-12.5862
▁condom	-12.5862
SARS	-12.5866
ừa	-12.5866
ups	-12.5875
transferase	-12.5878
apping	-12.5879
pharyngeal	-12.5886
riendship	-12.5888
▁Develop	-12.5888
chorionic	-12.5888
▁cephalometric	-12.5889
▁diplopia	-12.5889
▁đắp	-12.5889
▁Negative	-12.5889
▁shallow	-12.5889
▁infused	-12.5889
▁padding	-12.5889
▁electron	-12.5889
▁starch	-12.5889
▁mực	-12.5889
▁Bơ	-12.5889
▁anticipated	-12.5889
▁integrated	-12.589
▁glasses	-12.589
▁Generalized	-12.5891
▁aspirated	-12.5891
▁Sinus	-12.5892
▁Toan	-12.5892
▁automated	-12.5892
▁race	-12.5894
▁Epidemiological	-12.5894
▁molecule	-12.5896
▁gam	-12.5897
MĐ	-12.5897
▁fed	-12.5901
▁visited	-12.5902
ealing	-12.5904
▁contractures	-12.5908
...).	-12.5909
▁STI	-12.5913
▁orthosta	-12.5917
▁Phúc	-12.5918
▁Đào	-12.5919
phosphate	-12.5919
An	-12.592
▁palms	-12.5922
▁TST	-12.5925
▁Astra	-12.5925
dylar	-12.5931
▁Sống	-12.5933
▁save	-12.5937
▁FeNO	-12.5938
Related	-12.594
glucose	-12.594
DC	-12.594
thời	-12.5942
ulin	-12.5944
▁Phổ	-12.5944
lace	-12.5944
▁breasts	-12.5952
▁staphylococcal	-12.5953
rusted	-12.5954
alliative	-12.5956
rated	-12.5957
arch	-12.5958
▁Bacteria	-12.5961
▁Art	-12.5961
▁Cesarean	-12.5962
▁Dermatitis	-12.5962
▁hemochromatosis	-12.5962
▁hyperthermia	-12.5962
▁meniscus	-12.5962
▁reversal	-12.5962
▁Obstruction	-12.5962
▁hookworm	-12.5962
▁Volume	-12.5962
▁Artery	-12.5962
▁pubic	-12.5962
▁discontinuation	-12.5962
▁Update	-12.5962
▁prostheses	-12.5962
▁Majority	-12.5963
▁cytometry	-12.5963
microalbuminuria	-12.5963
▁Com	-12.5963
▁nhuyễn	-12.5964
▁Basic	-12.5964
▁connected	-12.5966
▁differentiati	-12.597
▁LO	-12.597
▁Cord	-12.5971
▁estimation	-12.5979
▁manifested	-12.5982
▁Alan	-12.5984
▁BPH	-12.5989
▁Auto	-12.5991
▁AHI	-12.5991
etic	-12.5996
cine	-12.5997
▁happen	-12.6
▁stents	-12.6006
▁Cause	-12.6008
▁maneuvers	-12.6008
▁VD	-12.6009
alk	-12.6009
▁emission	-12.601
▁aesthetics	-12.6011
ĐH	-12.6012
▁MAP	-12.6015
response	-12.6018
ranial	-12.6019
phút	-12.6019
▁ITP	-12.6021
▁Collect	-12.6023
albumin	-12.6023
HLA	-12.6023
ometry	-12.6027
▁Success	-12.6029
▁strip	-12.603
▁walls	-12.6031
acid	-12.6035
▁Bevacizumab	-12.6036
▁Nausea	-12.6036
▁Stenosis	-12.6036
▁crackles	-12.6036
▁fungus	-12.6036
▁hypothalamus	-12.6036
▁laryngoscopy	-12.6036
▁swimming	-12.6036
▁adenopathy	-12.6036
▁tội	-12.6036
▁Genital	-12.6036
▁Thrombosis	-12.6036
▁hydration	-12.6036
▁implicated	-12.6036
▁moist	-12.6036
▁chồn	-12.6036
ALS	-12.6036
▁del	-12.6036
▁diphenhydramine	-12.6037
▁methimazole	-12.6037
▁herniated	-12.6038
▁lún	-12.6038
▁flushing	-12.6039
▁updated	-12.6039
being	-12.604
antiphospholipid	-12.604
▁Mast	-12.6042
cocci	-12.6045
▁roles	-12.6046
▁hao	-12.6047
▁AMH	-12.6047
▁attempted	-12.6049
ski	-12.6051
anin	-12.6054
num	-12.6059
▁deeply	-12.606
▁kindergartens	-12.6061
▁transposition	-12.6063
oa	-12.6064
responding	-12.6065
ship	-12.6072
▁wash	-12.6082
▁impulse	-12.6084
▁DT	-12.6086
▁PiCCO	-12.6088
UNG	-12.609
eral	-12.6091
fibroma	-12.6094
▁seed	-12.6095
▁Dexamethasone	-12.6096
STI	-12.6099
▁matched	-12.6101
▁today	-12.6102
▁gọn	-12.6108
▁Second	-12.611
▁Prognosti	-12.611
▁giạng	-12.611
▁hydrochloride	-12.611
▁nhăn	-12.611
▁pallor	-12.611
▁arthroscopy	-12.611
▁patiens	-12.611
▁thoracoscopy	-12.611
▁Autoimmune	-12.611
▁hepatotoxicity	-12.611
▁perfect	-12.611
▁sunlight	-12.611
▁apoB	-12.611
▁Burkholderia	-12.6111
▁Delayed	-12.6112
▁lymphedema	-12.6112
▁confin	-12.6112
▁mirror	-12.6113
▁nanoparticles	-12.6115
▁sulfur	-12.6116
▁similarity	-12.6118
▁belonging	-12.6118
▁fibroids	-12.6118
▁inserting	-12.6119
ultidisciplinary	-12.6121
▁alive	-12.6122
▁Metronidazole	-12.6127
▁valproate	-12.6128
union	-12.613
▁silico	-12.6134
▁Here	-12.6141
only	-12.6142
▁dural	-12.6143
▁intention	-12.6143
▁vụn	-12.6144
auricular	-12.6145
▁chair	-12.6148
▁dimension	-12.6148
iodine	-12.6149
ension	-12.6153
nitro	-12.6157
bed	-12.6158
▁comment	-12.616
▁colic	-12.616
▁inhaler	-12.616
▁drinks	-12.616
MNT	-12.616
▁rated	-12.6167
▁DF	-12.6169
▁Practices	-12.6171
▁Shi	-12.6173
horacoscopic	-12.6173
iness	-12.6175
laryngo	-12.6177
▁planar	-12.6185
▁Approach	-12.6185
▁Resuscitation	-12.6185
▁lamivudine	-12.6185
▁garment	-12.6185
▁antiseptic	-12.6185
▁polyneuropathy	-12.6185
▁Transient	-12.6185
▁coagulase	-12.6185
▁deliveries	-12.6185
▁Multiplex	-12.6187
▁AMD	-12.6189
▁Poisoning	-12.619
lla	-12.619
▁scheduled	-12.619
▁chief	-12.6191
▁booster	-12.6191
UA	-12.6192
TTT	-12.6196
ượt	-12.6198
▁word	-12.6198
▁bigge	-12.6201
HBc	-12.6202
▁hight	-12.6206
▁hence	-12.6211
STM	-12.6211
hydroxyvitamin	-12.6214
▁NA	-12.6215
▁Nong	-12.6215
▁Đố	-12.6215
▁mề	-12.6222
▁Nail	-12.6224
▁link	-12.6225
int	-12.6225
▁TMA	-12.6228
PPV	-12.6229
▁expenditure	-12.6235
▁exudate	-12.6235
▁kindergarten	-12.6235
path	-12.6243
▁epidemiologic	-12.6245
fr	-12.6246
▁VF	-12.6247
▁hạnh	-12.6247
▁Ly	-12.6249
▁Enzyme	-12.625
▁INF	-12.6252
SPECT	-12.6255
▁don	-12.6257
Parkinson	-12.6258
▁Cyst	-12.6258
▁Robot	-12.6259
▁Huntington	-12.6261
▁Synthesis	-12.6261
▁protrusion	-12.6261
▁fluorescent	-12.6261
▁adipose	-12.6261
▁metaplasia	-12.6261
▁retrovirus	-12.6261
▁discrimination	-12.6261
▁beryllium	-12.6261
▁pan	-12.6263
▁buốt	-12.6263
▁ABC	-12.6263
▁ráy	-12.6263
▁DL	-12.6264
▁hứng	-12.6264
▁xát	-12.6264
▁intraperitoneal	-12.6267
dipper	-12.6268
matic	-12.6268
venous	-12.6271
▁seeking	-12.6275
▁Remove	-12.6275
▁conscious	-12.6276
VSD	-12.6283
▁adrenergic	-12.6287
▁Mark	-12.6287
▁indwelling	-12.629
nostomy	-12.629
hemo	-12.6294
▁details	-12.6299
▁subgroup	-12.6312
▁brings	-12.6318
▁ha	-12.6325
chloro	-12.6331
▁stretch	-12.6333
▁enlarge	-12.6334
fluoro	-12.6335
▁synap	-12.6335
▁Community	-12.6337
▁Influenza	-12.6337
▁Isolated	-12.6337
▁Trọng	-12.6337
▁aphasia	-12.6337
▁gonorrhea	-12.6337
▁staphylococci	-12.6337
▁Prior	-12.6337
▁Chagas	-12.6337
▁mSv	-12.6337
▁BCHTT	-12.6337
▁cardiology	-12.6337
▁introduction	-12.6337
▁photophobia	-12.6337
activating	-12.6337
▁inlay	-12.6337
▁refraction	-12.6337
▁vùi	-12.6338
▁Asymptomatic	-12.6338
soft	-12.6338
third	-12.6339
according	-12.6339
▁syn	-12.634
▁hook	-12.634
▁taught	-12.6341
▁compromised	-12.6342
▁đốc	-12.6343
▁NICU	-12.6344
bio	-12.6345
▁lặng	-12.6347
▁elevations	-12.6347
▁CAT	-12.6347
▁Reduc	-12.6347
▁Bru	-12.6349
▁eyelids	-12.6349
hemoembolization	-12.635
▁Thứ	-12.635
thrombocytopenic	-12.635
▁consuming	-12.6351
ears	-12.636
▁laterally	-12.637
bound	-12.6372
TICI	-12.6376
sulfon	-12.6379
▁ANCA	-12.6382
▁behaviour	-12.6387
▁flare	-12.6388
▁Chia	-12.6388
▁task	-12.6388
▁safer	-12.6394
▁Malle	-12.6397
▁enters	-12.6399
▁purine	-12.6399
▁trimethopri	-12.6406
MMT	-12.6406
▁ARBs	-12.6408
▁buffer	-12.641
yperpigmentation	-12.6413
▁Bismuth	-12.6413
▁Estrogen	-12.6413
▁Fatigue	-12.6413
▁Propofol	-12.6413
▁ankylosi	-12.6413
▁circle	-12.6413
▁meningitidis	-12.6413
▁miscarriage	-12.6413
▁opportunities	-12.6413
▁Hearing	-12.6413
▁maxillofacial	-12.6413
▁positron	-12.6414
▁Immunoglobulin	-12.6414
▁Bilateral	-12.6414
▁natriuretic	-12.6414
CLĐT	-12.6414
▁hypertonic	-12.6414
▁Bren	-12.6414
▁stabilization	-12.6414
secretory	-12.6414
▁rabies	-12.6415
▁sonography	-12.6415
▁phenolic	-12.6415
▁Advanced	-12.6415
▁click	-12.6416
female	-12.6421
▁nụ	-12.6427
▁characterize	-12.643
▁clavulanic	-12.6434
▁infiltrate	-12.6434
▁Enter	-12.6435
▁LN	-12.6437
▁Dướ	-12.6441
▁prove	-12.6445
TMT	-12.6446
iêng	-12.6446
PPD	-12.6448
done	-12.6452
PAC	-12.6453
▁Gu	-12.6456
▁feed	-12.6459
travenous	-12.6467
colored	-12.6469
▁pack	-12.647
ract	-12.6473
▁Run	-12.648
MAA	-12.6484
▁Backgrounds	-12.6486
▁microalbumin	-12.649
▁khứ	-12.649
▁cyclic	-12.649
▁Rheumatology	-12.6491
▁bismuth	-12.6491
▁etiologies	-12.6491
▁thyroglobulin	-12.6491
▁Hemorrhage	-12.6491
▁neuroblastoma	-12.6491
▁Limb	-12.6491
▁reactivation	-12.6491
▁stillbirth	-12.6491
▁homozygous	-12.6491
▁facing	-12.6492
▁ethnicity	-12.6493
▁Healthcare	-12.6495
oidal	-12.6497
ectus	-12.6498
▁TD	-12.6502
▁marit	-12.6502
▁government	-12.6502
volume	-12.6505
▁cor	-12.6505
▁dong	-12.6507
▁downward	-12.6507
ensis	-12.6511
▁contributions	-12.6519
▁overt	-12.6521
vin	-12.6522
label	-12.6524
▁gynecologic	-12.6525
effective	-12.6528
▁detectable	-12.6537
▁forming	-12.6539
▁kitchen	-12.6543
cyst	-12.6544
áy	-12.6547
▁tô	-12.6547
▁Coma	-12.6548
▁spreads	-12.6548
hêm	-12.6551
arin	-12.6551
▁HSTC	-12.6552
KL	-12.6553
mức	-12.6557
nasal	-12.6559
▁NGH	-12.6562
▁wish	-12.6568
▁stiff	-12.6568
clavicular	-12.6569
▁Concentration	-12.6569
▁Difference	-12.6569
▁Femoral	-12.6569
▁Pylori	-12.6569
▁cavities	-12.6569
▁giấm	-12.6569
▁tertiary	-12.6569
▁efficacious	-12.6569
▁comorbid	-12.6569
▁Neurosurgery	-12.6569
▁fifth	-12.6569
▁Geis	-12.6569
▁titrated	-12.657
▁precocious	-12.657
vasoconstriction	-12.657
▁ĐTĐTK	-12.657
hydro	-12.6571
▁THPT	-12.6572
▁adenomatous	-12.6573
▁Listeria	-12.6583
▁atropine	-12.6584
thoracic	-12.6585
stroke	-12.6586
economic	-12.6586
▁Triglyceride	-12.6586
maximum	-12.6586
CVN	-12.6587
▁pyloric	-12.6594
▁Sun	-12.6596
▁Pan	-12.6596
▁Rau	-12.6597
versely	-12.6598
aging	-12.66
▁sulfat	-12.6601
RBC	-12.6602
▁Advisor	-12.6607
▁GS	-12.661
▁Laur	-12.6613
omo	-12.6614
▁stimulated	-12.6615
HKTM	-12.6618
ostomy	-12.662
▁CHOP	-12.662
▁Technique	-12.6621
ison	-12.6624
mann	-12.6627
▁sharing	-12.6627
▁Lab	-12.6629
ENT	-12.6635
▁cholinesterase	-12.6636
▁stains	-12.6636
▁proliferative	-12.6637
▁sections	-12.6637
▁hemodynamics	-12.6637
ATG	-12.6642
▁Plan	-12.6643
rạng	-12.6644
vac	-12.6645
▁lượn	-12.6645
uestionnaire	-12.6647
defibrillator	-12.6647
lizumab	-12.6647
pyrazol	-12.6647
▁Estimate	-12.6647
▁Genotype	-12.6647
▁Impact	-12.6647
▁Pemphigoid	-12.6647
▁Regular	-12.6647
▁alleviate	-12.6647
▁histoplasmosis	-12.6647
▁perfringens	-12.6647
▁pustular	-12.6647
▁tyrosinase	-12.6647
▁neuritis	-12.6647
▁Tinea	-12.6647
▁deafness	-12.6647
▁revision	-12.6648
▁heterogeneous	-12.6648
▁sit	-12.6648
▁childbirth	-12.6648
▁overexpression	-12.6648
▁practicing	-12.6648
▁overgrowth	-12.6648
osm	-12.6649
LO	-12.6649
▁VP	-12.665
▁cystitis	-12.665
▁GIST	-12.6652
▁reversed	-12.6654
▁oxit	-12.6655
▁frame	-12.6659
▁shoes	-12.6659
▁Tích	-12.666
▁stimulating	-12.666
▁fluorouracil	-12.666
▁repeatedly	-12.6661
fast	-12.6663
▁parietal	-12.6665
Na	-12.6666
▁curves	-12.6666
mos	-12.6667
▁ago	-12.6667
▁Gold	-12.6667
angiotensin	-12.667
both	-12.667
▁Cytokine	-12.6671
▁BCP	-12.6671
thể	-12.6671
directed	-12.6673
▁resembl	-12.6677
▁iod	-12.6679
reflects	-12.6679
▁GPB	-12.668
hypo	-12.6683
▁Optic	-12.6684
western	-12.6686
▁AI	-12.6691
▁gluconate	-12.6691
▁spironolactone	-12.6695
CAR	-12.6697
lock	-12.6698
▁formal	-12.6698
▁hemorrhoid	-12.6701
▁titer	-12.6701
▁alteration	-12.6701
▁board	-12.6702
▁Act	-12.6704
▁acts	-12.6706
ude	-12.6711
▁Hu	-12.6715
huyết	-12.6718
▁Longo	-12.6719
▁ureteroscop	-12.6721
▁MCP	-12.6721
▁favor	-12.6725
▁Flow	-12.6726
▁Support	-12.6726
▁Cannulation	-12.6726
▁Rheumatoid	-12.6726
▁Vomiting	-12.6726
▁orthodontic	-12.6726
▁rhabdomyolysis	-12.6726
▁uncomfortable	-12.6726
▁phenobarbital	-12.6726
▁neobladder	-12.6726
▁socioeconomic	-12.6726
▁Medicare	-12.6726
▁Giardia	-12.6726
▁Gastro	-12.6727
▁HTLV	-12.6727
▁diversity	-12.6728
▁Ocular	-12.6728
▁imported	-12.6728
▁strongest	-12.6728
▁Experimental	-12.6728
▁anaphylactic	-12.6729
▁reconstructed	-12.6729
▁namely	-12.6729
▁rising	-12.673
▁Gel	-12.6732
▁tetralogy	-12.6732
▁stronger	-12.6732
alectin	-12.6734
▁hepatolithiasis	-12.6734
▁mistaken	-12.6734
▁lymphoid	-12.6736
luc	-12.6738
▁selecting	-12.6741
chlor	-12.6742
▁engage	-12.6742
▁polyethylene	-12.6746
▁Hence	-12.6746
▁metatarsal	-12.6751
▁implanted	-12.6756
urine	-12.6757
phase	-12.6758
mặc	-12.676
ility	-12.6762
▁Mac	-12.6763
▁AM	-12.6767
tics	-12.6778
▁girl	-12.678
▁parameter	-12.678
▁moment	-12.6781
ớp	-12.6784
abl	-12.6786
▁ESC	-12.6786
▁activate	-12.6786
▁octreotide	-12.6788
▁pho	-12.6793
lase	-12.6796
onventional	-12.68
▁MN	-12.68
▁abrupt	-12.6803
▁substitute	-12.6804
ammaglobulinemia	-12.6806
▁Acetaminophen	-12.6806
▁Staphylococci	-12.6806
▁allogeneic	-12.6806
▁arsenic	-12.6806
▁encouraging	-12.6806
▁urethritis	-12.6806
▁vigorous	-12.6806
▁Dyslipidemia	-12.6806
▁FACTORS	-12.6806
▁hbv	-12.6806
▁véc	-12.6806
▁spondylosis	-12.6806
▁compensation	-12.6806
▁rotating	-12.6806
▁Edema	-12.6806
▁overcome	-12.6806
▁Internet	-12.6806
▁constitute	-12.6806
▁computerized	-12.6806
ecal	-12.6807
▁Recovery	-12.6807
▁psychosocial	-12.6808
▁Allergy	-12.6808
▁survived	-12.681
▁saw	-12.6811
▁radiography	-12.6812
static	-12.6813
▁injecting	-12.6813
▁treatable	-12.6813
▁MRCP	-12.6815
▁pad	-12.6816
▁TU	-12.6816
▁Cornell	-12.6816
▁entered	-12.6817
▁serotypes	-12.6822
Gra	-12.6822
▁nephro	-12.6827
ồn	-12.6828
gh	-12.683
▁tróc	-12.6834
▁triggering	-12.6835
▁Medications	-12.6836
tổn	-12.6837
obesity	-12.6839
ANCA	-12.684
amylase	-12.6843
▁infarcts	-12.685
GV	-12.685
▁informed	-12.6852
▁Sai	-12.6855
▁stick	-12.6857
▁marketing	-12.686
▁vasopressor	-12.686
▁erosion	-12.686
▁Now	-12.6861
▁Law	-12.6864
neu	-12.6865
▁VGB	-12.6878
▁BTM	-12.6878
▁SO	-12.6879
▁concentrate	-12.6881
▁comes	-12.6881
▁PCEA	-12.6883
▁sur	-12.6886
▁Ventilator	-12.6886
▁Chicago	-12.6886
▁Cập	-12.6886
▁illicit	-12.6886
▁ophthalmic	-12.6886
▁valacyclovir	-12.6886
▁agencies	-12.6886
▁quadruple	-12.6886
▁Pôn	-12.6886
▁chinensis	-12.6887
▁cheek	-12.6887
▁đực	-12.6887
▁optimization	-12.6887
▁gió	-12.6887
▁hips	-12.6887
▁childbearing	-12.6887
▁Environmental	-12.6887
▁REM	-12.6888
▁adrenalectomy	-12.6888
▁DASS	-12.6888
▁realized	-12.6889
▁meatus	-12.6889
▁transcription	-12.6889
▁thiệt	-12.6891
▁IS	-12.6892
▁duong	-12.6892
aOR	-12.6893
immune	-12.6896
DRB	-12.6897
logy	-12.6898
tam	-12.6904
▁TBMMN	-12.6905
▁Vari	-12.6907
▁therapists	-12.6908
▁quặ	-12.6912
▁Ngai	-12.6915
▁rings	-12.6919
transplant	-12.6925
needle	-12.6925
dialysis	-12.6925
transplantation	-12.6926
vì	-12.6926
HBs	-12.6927
brain	-12.6928
▁altitude	-12.6929
▁radiograph	-12.693
▁Tic	-12.6933
▁genus	-12.6934
▁Special	-12.6935
▁isolate	-12.694
ICAL	-12.6941
▁combines	-12.6942
▁Levofloxacin	-12.6944
▁umbilicus	-12.6944
▁graded	-12.6944
▁Osteo	-12.6945
▁Prevent	-12.6948
▁Famili	-12.6949
sự	-12.695
▁VRT	-12.6955
phil	-12.6958
▁ADL	-12.6962
▁orbit	-12.6963
▁són	-12.6965
▁vinh	-12.6966
▁EORTC	-12.6968
▁clarify	-12.6968
▁monocytogenes	-12.6968
▁remember	-12.6968
▁MLPA	-12.6968
▁coffee	-12.6968
▁Osteoporosis	-12.6968
▁scaling	-12.6968
▁polyangiitis	-12.6968
▁SCID	-12.6968
▁Hs	-12.6968
▁extraperitoneal	-12.6968
▁substitution	-12.6968
▁dilator	-12.6968
▁reticulocyte	-12.6968
▁promotion	-12.6968
▁globe	-12.6968
▁Trứng	-12.6968
▁ionized	-12.6969
▁stabilized	-12.6971
▁substantially	-12.6972
NIC	-12.6974
▁IMRT	-12.6975
▁tường	-12.6978
TCC	-12.6979
▁uni	-12.6979
APS	-12.698
▁RSD	-12.6987
tag	-12.6989
▁nitrat	-12.699
▁track	-12.699
▁Air	-12.6992
▁bisphosphonates	-12.6992
▁MTB	-12.6993
▁inhibited	-12.6994
▁investigations	-12.6996
▁geographic	-12.6997
▁SP	-12.6998
▁Nhàn	-12.7
UMC	-12.7002
iii	-12.7007
▁soles	-12.7007
▁coexist	-12.7007
▁Nd	-12.7012
phẫu	-12.7012
áng	-12.7015
▁AAA	-12.7015
valve	-12.7016
fus	-12.7017
▁Mạ	-12.702
CUR	-12.702
▁specialists	-12.702
▁algorithm	-12.7023
▁pharmacist	-12.7023
ớt	-12.7025
▁pneumo	-12.7028
▁panic	-12.7032
cious	-12.7036
▁originate	-12.7037
MRC	-12.7037
▁VMAT	-12.7044
▁associate	-12.7047
book	-12.7048
thyroid	-12.7049
▁built	-12.7049
pondylolisthesis	-12.7049
▁achalasia	-12.7049
▁afferent	-12.7049
▁ameloblastoma	-12.7049
▁myoclonus	-12.7049
▁oblique	-12.7049
▁relevance	-12.7049
▁streptococcus	-12.7049
▁topiramate	-12.7049
ccidioidomycosis	-12.7049
▁remarkably	-12.7049
▁Chloramphenicol	-12.7049
▁mưa	-12.7049
▁ridge	-12.7049
▁oligo	-12.7049
▁juvenile	-12.7049
▁migrate	-12.7049
▁VietNam	-12.7049
SIS	-12.705
▁silicosis	-12.705
▁Finally	-12.705
▁reconstructive	-12.705
▁HV	-12.705
▁ngọn	-12.705
▁LVEF	-12.7051
▁bank	-12.7052
▁notice	-12.7052
▁shot	-12.7053
▁factory	-12.7054
cha	-12.7056
▁granules	-12.7056
▁Fox	-12.7058
GABA	-12.706
▁KCN	-12.706
▁metabolites	-12.706
verse	-12.706
▁NSE	-12.7061
▁Kcal	-12.7061
[...]
